node {
  name: "global_step/Initializer/zeros/shape_as_tensor"
  op: "Const"
  attr {
    key: "_class"
    value {
      list {
        s: "loc:@global_step"
      }
    }
  }
  attr {
    key: "_output_shapes"
    value {
      list {
        shape {
          dim {
          }
        }
      }
    }
  }
  attr {
    key: "dtype"
    value {
      type: DT_INT32
    }
  }
  attr {
    key: "value"
    value {
      tensor {
        dtype: DT_INT32
        tensor_shape {
          dim {
          }
        }
      }
    }
  }
}
node {
  name: "global_step/Initializer/zeros/Const"
  op: "Const"
  attr {
    key: "_class"
    value {
      list {
        s: "loc:@global_step"
      }
    }
  }
  attr {
    key: "_output_shapes"
    value {
      list {
        shape {
        }
      }
    }
  }
  attr {
    key: "dtype"
    value {
      type: DT_INT64
    }
  }
  attr {
    key: "value"
    value {
      tensor {
        dtype: DT_INT64
        tensor_shape {
        }
        int64_val: 0
      }
    }
  }
}
node {
  name: "global_step/Initializer/zeros"
  op: "Fill"
  input: "global_step/Initializer/zeros/shape_as_tensor"
  input: "global_step/Initializer/zeros/Const"
  attr {
    key: "T"
    value {
      type: DT_INT64
    }
  }
  attr {
    key: "_class"
    value {
      list {
        s: "loc:@global_step"
      }
    }
  }
  attr {
    key: "_output_shapes"
    value {
      list {
        shape {
        }
      }
    }
  }
  attr {
    key: "index_type"
    value {
      type: DT_INT32
    }
  }
}
node {
  name: "global_step"
  op: "VariableV2"
  attr {
    key: "_class"
    value {
      list {
        s: "loc:@global_step"
      }
    }
  }
  attr {
    key: "_output_shapes"
    value {
      list {
        shape {
        }
      }
    }
  }
  attr {
    key: "container"
    value {
      s: ""
    }
  }
  attr {
    key: "dtype"
    value {
      type: DT_INT64
    }
  }
  attr {
    key: "shape"
    value {
      shape {
      }
    }
  }
  attr {
    key: "shared_name"
    value {
      s: ""
    }
  }
}
node {
  name: "global_step/Assign"
  op: "Assign"
  input: "global_step"
  input: "global_step/Initializer/zeros"
  attr {
    key: "T"
    value {
      type: DT_INT64
    }
  }
  attr {
    key: "_class"
    value {
      list {
        s: "loc:@global_step"
      }
    }
  }
  attr {
    key: "_output_shapes"
    value {
      list {
        shape {
        }
      }
    }
  }
  attr {
    key: "use_locking"
    value {
      b: true
    }
  }
  attr {
    key: "validate_shape"
    value {
      b: true
    }
  }
}
node {
  name: "global_step/read"
  op: "Identity"
  input: "global_step"
  attr {
    key: "T"
    value {
      type: DT_INT64
    }
  }
  attr {
    key: "_class"
    value {
      list {
        s: "loc:@global_step"
      }
    }
  }
  attr {
    key: "_output_shapes"
    value {
      list {
        shape {
        }
      }
    }
  }
}
node {
  name: "global_step/IsVariableInitialized"
  op: "IsVariableInitialized"
  input: "global_step"
  attr {
    key: "_class"
    value {
      list {
        s: "loc:@global_step"
      }
    }
  }
  attr {
    key: "_output_shapes"
    value {
      list {
        shape {
        }
      }
    }
  }
  attr {
    key: "dtype"
    value {
      type: DT_INT64
    }
  }
}
node {
  name: "global_step/cond/Switch"
  op: "Switch"
  input: "global_step/IsVariableInitialized"
  input: "global_step/IsVariableInitialized"
  attr {
    key: "T"
    value {
      type: DT_BOOL
    }
  }
  attr {
    key: "_output_shapes"
    value {
      list {
        shape {
        }
        shape {
        }
      }
    }
  }
}
node {
  name: "global_step/cond/switch_t"
  op: "Identity"
  input: "global_step/cond/Switch:1"
  attr {
    key: "T"
    value {
      type: DT_BOOL
    }
  }
  attr {
    key: "_output_shapes"
    value {
      list {
        shape {
        }
      }
    }
  }
}
node {
  name: "global_step/cond/switch_f"
  op: "Identity"
  input: "global_step/cond/Switch"
  attr {
    key: "T"
    value {
      type: DT_BOOL
    }
  }
  attr {
    key: "_output_shapes"
    value {
      list {
        shape {
        }
      }
    }
  }
}
node {
  name: "global_step/cond/pred_id"
  op: "Identity"
  input: "global_step/IsVariableInitialized"
  attr {
    key: "T"
    value {
      type: DT_BOOL
    }
  }
  attr {
    key: "_output_shapes"
    value {
      list {
        shape {
        }
      }
    }
  }
}
node {
  name: "global_step/cond/read"
  op: "Identity"
  input: "global_step/cond/read/Switch:1"
  attr {
    key: "T"
    value {
      type: DT_INT64
    }
  }
  attr {
    key: "_output_shapes"
    value {
      list {
        shape {
        }
      }
    }
  }
}
node {
  name: "global_step/cond/read/Switch"
  op: "RefSwitch"
  input: "global_step"
  input: "global_step/cond/pred_id"
  attr {
    key: "T"
    value {
      type: DT_INT64
    }
  }
  attr {
    key: "_class"
    value {
      list {
        s: "loc:@global_step"
      }
    }
  }
  attr {
    key: "_output_shapes"
    value {
      list {
        shape {
        }
        shape {
        }
      }
    }
  }
}
node {
  name: "global_step/cond/Switch_1"
  op: "Switch"
  input: "global_step/Initializer/zeros"
  input: "global_step/cond/pred_id"
  attr {
    key: "T"
    value {
      type: DT_INT64
    }
  }
  attr {
    key: "_class"
    value {
      list {
        s: "loc:@global_step"
      }
    }
  }
  attr {
    key: "_output_shapes"
    value {
      list {
        shape {
        }
        shape {
        }
      }
    }
  }
}
node {
  name: "global_step/cond/Merge"
  op: "Merge"
  input: "global_step/cond/Switch_1"
  input: "global_step/cond/read"
  attr {
    key: "N"
    value {
      i: 2
    }
  }
  attr {
    key: "T"
    value {
      type: DT_INT64
    }
  }
  attr {
    key: "_output_shapes"
    value {
      list {
        shape {
        }
        shape {
        }
      }
    }
  }
}
node {
  name: "global_step/add/y"
  op: "Const"
  attr {
    key: "_output_shapes"
    value {
      list {
        shape {
        }
      }
    }
  }
  attr {
    key: "dtype"
    value {
      type: DT_INT64
    }
  }
  attr {
    key: "value"
    value {
      tensor {
        dtype: DT_INT64
        tensor_shape {
        }
        int64_val: 0
      }
    }
  }
}
node {
  name: "global_step/add"
  op: "Add"
  input: "global_step/cond/Merge"
  input: "global_step/add/y"
  attr {
    key: "T"
    value {
      type: DT_INT64
    }
  }
  attr {
    key: "_output_shapes"
    value {
      list {
        shape {
        }
      }
    }
  }
}
node {
  name: "truncated_normal/shape"
  op: "Const"
  attr {
    key: "_output_shapes"
    value {
      list {
        shape {
          dim {
            size: 2
          }
        }
      }
    }
  }
  attr {
    key: "dtype"
    value {
      type: DT_INT32
    }
  }
  attr {
    key: "value"
    value {
      tensor {
        dtype: DT_INT32
        tensor_shape {
          dim {
            size: 2
          }
        }
        tensor_content: "\n\000\000\000\372\000\000\000"
      }
    }
  }
}
node {
  name: "truncated_normal/mean"
  op: "Const"
  attr {
    key: "_output_shapes"
    value {
      list {
        shape {
        }
      }
    }
  }
  attr {
    key: "dtype"
    value {
      type: DT_FLOAT
    }
  }
  attr {
    key: "value"
    value {
      tensor {
        dtype: DT_FLOAT
        tensor_shape {
        }
        float_val: 0.0
      }
    }
  }
}
node {
  name: "truncated_normal/stddev"
  op: "Const"
  attr {
    key: "_output_shapes"
    value {
      list {
        shape {
        }
      }
    }
  }
  attr {
    key: "dtype"
    value {
      type: DT_FLOAT
    }
  }
  attr {
    key: "value"
    value {
      tensor {
        dtype: DT_FLOAT
        tensor_shape {
        }
        float_val: 0.063245549798
      }
    }
  }
}
node {
  name: "truncated_normal/TruncatedNormal"
  op: "TruncatedNormal"
  input: "truncated_normal/shape"
  attr {
    key: "T"
    value {
      type: DT_INT32
    }
  }
  attr {
    key: "_output_shapes"
    value {
      list {
        shape {
          dim {
            size: 10
          }
          dim {
            size: 250
          }
        }
      }
    }
  }
  attr {
    key: "dtype"
    value {
      type: DT_FLOAT
    }
  }
  attr {
    key: "seed"
    value {
      i: 0
    }
  }
  attr {
    key: "seed2"
    value {
      i: 0
    }
  }
}
node {
  name: "truncated_normal/mul"
  op: "Mul"
  input: "truncated_normal/TruncatedNormal"
  input: "truncated_normal/stddev"
  attr {
    key: "T"
    value {
      type: DT_FLOAT
    }
  }
  attr {
    key: "_output_shapes"
    value {
      list {
        shape {
          dim {
            size: 10
          }
          dim {
            size: 250
          }
        }
      }
    }
  }
}
node {
  name: "truncated_normal"
  op: "Add"
  input: "truncated_normal/mul"
  input: "truncated_normal/mean"
  attr {
    key: "T"
    value {
      type: DT_FLOAT
    }
  }
  attr {
    key: "_output_shapes"
    value {
      list {
        shape {
          dim {
            size: 10
          }
          dim {
            size: 250
          }
        }
      }
    }
  }
}
node {
  name: "Variable"
  op: "VariableV2"
  attr {
    key: "_output_shapes"
    value {
      list {
        shape {
          dim {
            size: 10
          }
          dim {
            size: 250
          }
        }
      }
    }
  }
  attr {
    key: "container"
    value {
      s: ""
    }
  }
  attr {
    key: "dtype"
    value {
      type: DT_FLOAT
    }
  }
  attr {
    key: "shape"
    value {
      shape {
        dim {
          size: 10
        }
        dim {
          size: 250
        }
      }
    }
  }
  attr {
    key: "shared_name"
    value {
      s: ""
    }
  }
}
node {
  name: "Variable/Assign"
  op: "Assign"
  input: "Variable"
  input: "truncated_normal"
  attr {
    key: "T"
    value {
      type: DT_FLOAT
    }
  }
  attr {
    key: "_class"
    value {
      list {
        s: "loc:@Variable"
      }
    }
  }
  attr {
    key: "_output_shapes"
    value {
      list {
        shape {
          dim {
            size: 10
          }
          dim {
            size: 250
          }
        }
      }
    }
  }
  attr {
    key: "use_locking"
    value {
      b: true
    }
  }
  attr {
    key: "validate_shape"
    value {
      b: true
    }
  }
}
node {
  name: "Variable/read"
  op: "Identity"
  input: "Variable"
  attr {
    key: "T"
    value {
      type: DT_FLOAT
    }
  }
  attr {
    key: "_class"
    value {
      list {
        s: "loc:@Variable"
      }
    }
  }
  attr {
    key: "_output_shapes"
    value {
      list {
        shape {
          dim {
            size: 10
          }
          dim {
            size: 250
          }
        }
      }
    }
  }
}
node {
  name: "zeros/shape_as_tensor"
  op: "Const"
  attr {
    key: "_output_shapes"
    value {
      list {
        shape {
          dim {
            size: 1
          }
        }
      }
    }
  }
  attr {
    key: "dtype"
    value {
      type: DT_INT32
    }
  }
  attr {
    key: "value"
    value {
      tensor {
        dtype: DT_INT32
        tensor_shape {
          dim {
            size: 1
          }
        }
        int_val: 250
      }
    }
  }
}
node {
  name: "zeros/Const"
  op: "Const"
  attr {
    key: "_output_shapes"
    value {
      list {
        shape {
        }
      }
    }
  }
  attr {
    key: "dtype"
    value {
      type: DT_FLOAT
    }
  }
  attr {
    key: "value"
    value {
      tensor {
        dtype: DT_FLOAT
        tensor_shape {
        }
        float_val: 0.0
      }
    }
  }
}
node {
  name: "zeros"
  op: "Fill"
  input: "zeros/shape_as_tensor"
  input: "zeros/Const"
  attr {
    key: "T"
    value {
      type: DT_FLOAT
    }
  }
  attr {
    key: "_output_shapes"
    value {
      list {
        shape {
          dim {
            size: 250
          }
        }
      }
    }
  }
  attr {
    key: "index_type"
    value {
      type: DT_INT32
    }
  }
}
node {
  name: "Variable_1"
  op: "VariableV2"
  attr {
    key: "_output_shapes"
    value {
      list {
        shape {
          dim {
            size: 250
          }
        }
      }
    }
  }
  attr {
    key: "container"
    value {
      s: ""
    }
  }
  attr {
    key: "dtype"
    value {
      type: DT_FLOAT
    }
  }
  attr {
    key: "shape"
    value {
      shape {
        dim {
          size: 250
        }
      }
    }
  }
  attr {
    key: "shared_name"
    value {
      s: ""
    }
  }
}
node {
  name: "Variable_1/Assign"
  op: "Assign"
  input: "Variable_1"
  input: "zeros"
  attr {
    key: "T"
    value {
      type: DT_FLOAT
    }
  }
  attr {
    key: "_class"
    value {
      list {
        s: "loc:@Variable_1"
      }
    }
  }
  attr {
    key: "_output_shapes"
    value {
      list {
        shape {
          dim {
            size: 250
          }
        }
      }
    }
  }
  attr {
    key: "use_locking"
    value {
      b: true
    }
  }
  attr {
    key: "validate_shape"
    value {
      b: true
    }
  }
}
node {
  name: "Variable_1/read"
  op: "Identity"
  input: "Variable_1"
  attr {
    key: "T"
    value {
      type: DT_FLOAT
    }
  }
  attr {
    key: "_class"
    value {
      list {
        s: "loc:@Variable_1"
      }
    }
  }
  attr {
    key: "_output_shapes"
    value {
      list {
        shape {
          dim {
            size: 250
          }
        }
      }
    }
  }
}
node {
  name: "truncated_normal_1/shape"
  op: "Const"
  attr {
    key: "_output_shapes"
    value {
      list {
        shape {
          dim {
            size: 2
          }
        }
      }
    }
  }
  attr {
    key: "dtype"
    value {
      type: DT_INT32
    }
  }
  attr {
    key: "value"
    value {
      tensor {
        dtype: DT_INT32
        tensor_shape {
          dim {
            size: 2
          }
        }
        tensor_content: "\372\000\000\000d\000\000\000"
      }
    }
  }
}
node {
  name: "truncated_normal_1/mean"
  op: "Const"
  attr {
    key: "_output_shapes"
    value {
      list {
        shape {
        }
      }
    }
  }
  attr {
    key: "dtype"
    value {
      type: DT_FLOAT
    }
  }
  attr {
    key: "value"
    value {
      tensor {
        dtype: DT_FLOAT
        tensor_shape {
        }
        float_val: 0.0
      }
    }
  }
}
node {
  name: "truncated_normal_1/stddev"
  op: "Const"
  attr {
    key: "_output_shapes"
    value {
      list {
        shape {
        }
      }
    }
  }
  attr {
    key: "dtype"
    value {
      type: DT_FLOAT
    }
  }
  attr {
    key: "value"
    value {
      tensor {
        dtype: DT_FLOAT
        tensor_shape {
        }
        float_val: 0.10000000149
      }
    }
  }
}
node {
  name: "truncated_normal_1/TruncatedNormal"
  op: "TruncatedNormal"
  input: "truncated_normal_1/shape"
  attr {
    key: "T"
    value {
      type: DT_INT32
    }
  }
  attr {
    key: "_output_shapes"
    value {
      list {
        shape {
          dim {
            size: 250
          }
          dim {
            size: 100
          }
        }
      }
    }
  }
  attr {
    key: "dtype"
    value {
      type: DT_FLOAT
    }
  }
  attr {
    key: "seed"
    value {
      i: 0
    }
  }
  attr {
    key: "seed2"
    value {
      i: 0
    }
  }
}
node {
  name: "truncated_normal_1/mul"
  op: "Mul"
  input: "truncated_normal_1/TruncatedNormal"
  input: "truncated_normal_1/stddev"
  attr {
    key: "T"
    value {
      type: DT_FLOAT
    }
  }
  attr {
    key: "_output_shapes"
    value {
      list {
        shape {
          dim {
            size: 250
          }
          dim {
            size: 100
          }
        }
      }
    }
  }
}
node {
  name: "truncated_normal_1"
  op: "Add"
  input: "truncated_normal_1/mul"
  input: "truncated_normal_1/mean"
  attr {
    key: "T"
    value {
      type: DT_FLOAT
    }
  }
  attr {
    key: "_output_shapes"
    value {
      list {
        shape {
          dim {
            size: 250
          }
          dim {
            size: 100
          }
        }
      }
    }
  }
}
node {
  name: "Variable_2"
  op: "VariableV2"
  attr {
    key: "_output_shapes"
    value {
      list {
        shape {
          dim {
            size: 250
          }
          dim {
            size: 100
          }
        }
      }
    }
  }
  attr {
    key: "container"
    value {
      s: ""
    }
  }
  attr {
    key: "dtype"
    value {
      type: DT_FLOAT
    }
  }
  attr {
    key: "shape"
    value {
      shape {
        dim {
          size: 250
        }
        dim {
          size: 100
        }
      }
    }
  }
  attr {
    key: "shared_name"
    value {
      s: ""
    }
  }
}
node {
  name: "Variable_2/Assign"
  op: "Assign"
  input: "Variable_2"
  input: "truncated_normal_1"
  attr {
    key: "T"
    value {
      type: DT_FLOAT
    }
  }
  attr {
    key: "_class"
    value {
      list {
        s: "loc:@Variable_2"
      }
    }
  }
  attr {
    key: "_output_shapes"
    value {
      list {
        shape {
          dim {
            size: 250
          }
          dim {
            size: 100
          }
        }
      }
    }
  }
  attr {
    key: "use_locking"
    value {
      b: true
    }
  }
  attr {
    key: "validate_shape"
    value {
      b: true
    }
  }
}
node {
  name: "Variable_2/read"
  op: "Identity"
  input: "Variable_2"
  attr {
    key: "T"
    value {
      type: DT_FLOAT
    }
  }
  attr {
    key: "_class"
    value {
      list {
        s: "loc:@Variable_2"
      }
    }
  }
  attr {
    key: "_output_shapes"
    value {
      list {
        shape {
          dim {
            size: 250
          }
          dim {
            size: 100
          }
        }
      }
    }
  }
}
node {
  name: "zeros_1/shape_as_tensor"
  op: "Const"
  attr {
    key: "_output_shapes"
    value {
      list {
        shape {
          dim {
            size: 1
          }
        }
      }
    }
  }
  attr {
    key: "dtype"
    value {
      type: DT_INT32
    }
  }
  attr {
    key: "value"
    value {
      tensor {
        dtype: DT_INT32
        tensor_shape {
          dim {
            size: 1
          }
        }
        int_val: 100
      }
    }
  }
}
node {
  name: "zeros_1/Const"
  op: "Const"
  attr {
    key: "_output_shapes"
    value {
      list {
        shape {
        }
      }
    }
  }
  attr {
    key: "dtype"
    value {
      type: DT_FLOAT
    }
  }
  attr {
    key: "value"
    value {
      tensor {
        dtype: DT_FLOAT
        tensor_shape {
        }
        float_val: 0.0
      }
    }
  }
}
node {
  name: "zeros_1"
  op: "Fill"
  input: "zeros_1/shape_as_tensor"
  input: "zeros_1/Const"
  attr {
    key: "T"
    value {
      type: DT_FLOAT
    }
  }
  attr {
    key: "_output_shapes"
    value {
      list {
        shape {
          dim {
            size: 100
          }
        }
      }
    }
  }
  attr {
    key: "index_type"
    value {
      type: DT_INT32
    }
  }
}
node {
  name: "Variable_3"
  op: "VariableV2"
  attr {
    key: "_output_shapes"
    value {
      list {
        shape {
          dim {
            size: 100
          }
        }
      }
    }
  }
  attr {
    key: "container"
    value {
      s: ""
    }
  }
  attr {
    key: "dtype"
    value {
      type: DT_FLOAT
    }
  }
  attr {
    key: "shape"
    value {
      shape {
        dim {
          size: 100
        }
      }
    }
  }
  attr {
    key: "shared_name"
    value {
      s: ""
    }
  }
}
node {
  name: "Variable_3/Assign"
  op: "Assign"
  input: "Variable_3"
  input: "zeros_1"
  attr {
    key: "T"
    value {
      type: DT_FLOAT
    }
  }
  attr {
    key: "_class"
    value {
      list {
        s: "loc:@Variable_3"
      }
    }
  }
  attr {
    key: "_output_shapes"
    value {
      list {
        shape {
          dim {
            size: 100
          }
        }
      }
    }
  }
  attr {
    key: "use_locking"
    value {
      b: true
    }
  }
  attr {
    key: "validate_shape"
    value {
      b: true
    }
  }
}
node {
  name: "Variable_3/read"
  op: "Identity"
  input: "Variable_3"
  attr {
    key: "T"
    value {
      type: DT_FLOAT
    }
  }
  attr {
    key: "_class"
    value {
      list {
        s: "loc:@Variable_3"
      }
    }
  }
  attr {
    key: "_output_shapes"
    value {
      list {
        shape {
          dim {
            size: 100
          }
        }
      }
    }
  }
}
node {
  name: "truncated_normal_2/shape"
  op: "Const"
  attr {
    key: "_output_shapes"
    value {
      list {
        shape {
          dim {
            size: 2
          }
        }
      }
    }
  }
  attr {
    key: "dtype"
    value {
      type: DT_INT32
    }
  }
  attr {
    key: "value"
    value {
      tensor {
        dtype: DT_INT32
        tensor_shape {
          dim {
            size: 2
          }
        }
        tensor_content: "d\000\000\0002\000\000\000"
      }
    }
  }
}
node {
  name: "truncated_normal_2/mean"
  op: "Const"
  attr {
    key: "_output_shapes"
    value {
      list {
        shape {
        }
      }
    }
  }
  attr {
    key: "dtype"
    value {
      type: DT_FLOAT
    }
  }
  attr {
    key: "value"
    value {
      tensor {
        dtype: DT_FLOAT
        tensor_shape {
        }
        float_val: 0.0
      }
    }
  }
}
node {
  name: "truncated_normal_2/stddev"
  op: "Const"
  attr {
    key: "_output_shapes"
    value {
      list {
        shape {
        }
      }
    }
  }
  attr {
    key: "dtype"
    value {
      type: DT_FLOAT
    }
  }
  attr {
    key: "value"
    value {
      tensor {
        dtype: DT_FLOAT
        tensor_shape {
        }
        float_val: 0.141421362758
      }
    }
  }
}
node {
  name: "truncated_normal_2/TruncatedNormal"
  op: "TruncatedNormal"
  input: "truncated_normal_2/shape"
  attr {
    key: "T"
    value {
      type: DT_INT32
    }
  }
  attr {
    key: "_output_shapes"
    value {
      list {
        shape {
          dim {
            size: 100
          }
          dim {
            size: 50
          }
        }
      }
    }
  }
  attr {
    key: "dtype"
    value {
      type: DT_FLOAT
    }
  }
  attr {
    key: "seed"
    value {
      i: 0
    }
  }
  attr {
    key: "seed2"
    value {
      i: 0
    }
  }
}
node {
  name: "truncated_normal_2/mul"
  op: "Mul"
  input: "truncated_normal_2/TruncatedNormal"
  input: "truncated_normal_2/stddev"
  attr {
    key: "T"
    value {
      type: DT_FLOAT
    }
  }
  attr {
    key: "_output_shapes"
    value {
      list {
        shape {
          dim {
            size: 100
          }
          dim {
            size: 50
          }
        }
      }
    }
  }
}
node {
  name: "truncated_normal_2"
  op: "Add"
  input: "truncated_normal_2/mul"
  input: "truncated_normal_2/mean"
  attr {
    key: "T"
    value {
      type: DT_FLOAT
    }
  }
  attr {
    key: "_output_shapes"
    value {
      list {
        shape {
          dim {
            size: 100
          }
          dim {
            size: 50
          }
        }
      }
    }
  }
}
node {
  name: "Variable_4"
  op: "VariableV2"
  attr {
    key: "_output_shapes"
    value {
      list {
        shape {
          dim {
            size: 100
          }
          dim {
            size: 50
          }
        }
      }
    }
  }
  attr {
    key: "container"
    value {
      s: ""
    }
  }
  attr {
    key: "dtype"
    value {
      type: DT_FLOAT
    }
  }
  attr {
    key: "shape"
    value {
      shape {
        dim {
          size: 100
        }
        dim {
          size: 50
        }
      }
    }
  }
  attr {
    key: "shared_name"
    value {
      s: ""
    }
  }
}
node {
  name: "Variable_4/Assign"
  op: "Assign"
  input: "Variable_4"
  input: "truncated_normal_2"
  attr {
    key: "T"
    value {
      type: DT_FLOAT
    }
  }
  attr {
    key: "_class"
    value {
      list {
        s: "loc:@Variable_4"
      }
    }
  }
  attr {
    key: "_output_shapes"
    value {
      list {
        shape {
          dim {
            size: 100
          }
          dim {
            size: 50
          }
        }
      }
    }
  }
  attr {
    key: "use_locking"
    value {
      b: true
    }
  }
  attr {
    key: "validate_shape"
    value {
      b: true
    }
  }
}
node {
  name: "Variable_4/read"
  op: "Identity"
  input: "Variable_4"
  attr {
    key: "T"
    value {
      type: DT_FLOAT
    }
  }
  attr {
    key: "_class"
    value {
      list {
        s: "loc:@Variable_4"
      }
    }
  }
  attr {
    key: "_output_shapes"
    value {
      list {
        shape {
          dim {
            size: 100
          }
          dim {
            size: 50
          }
        }
      }
    }
  }
}
node {
  name: "zeros_2/shape_as_tensor"
  op: "Const"
  attr {
    key: "_output_shapes"
    value {
      list {
        shape {
          dim {
            size: 1
          }
        }
      }
    }
  }
  attr {
    key: "dtype"
    value {
      type: DT_INT32
    }
  }
  attr {
    key: "value"
    value {
      tensor {
        dtype: DT_INT32
        tensor_shape {
          dim {
            size: 1
          }
        }
        int_val: 50
      }
    }
  }
}
node {
  name: "zeros_2/Const"
  op: "Const"
  attr {
    key: "_output_shapes"
    value {
      list {
        shape {
        }
      }
    }
  }
  attr {
    key: "dtype"
    value {
      type: DT_FLOAT
    }
  }
  attr {
    key: "value"
    value {
      tensor {
        dtype: DT_FLOAT
        tensor_shape {
        }
        float_val: 0.0
      }
    }
  }
}
node {
  name: "zeros_2"
  op: "Fill"
  input: "zeros_2/shape_as_tensor"
  input: "zeros_2/Const"
  attr {
    key: "T"
    value {
      type: DT_FLOAT
    }
  }
  attr {
    key: "_output_shapes"
    value {
      list {
        shape {
          dim {
            size: 50
          }
        }
      }
    }
  }
  attr {
    key: "index_type"
    value {
      type: DT_INT32
    }
  }
}
node {
  name: "Variable_5"
  op: "VariableV2"
  attr {
    key: "_output_shapes"
    value {
      list {
        shape {
          dim {
            size: 50
          }
        }
      }
    }
  }
  attr {
    key: "container"
    value {
      s: ""
    }
  }
  attr {
    key: "dtype"
    value {
      type: DT_FLOAT
    }
  }
  attr {
    key: "shape"
    value {
      shape {
        dim {
          size: 50
        }
      }
    }
  }
  attr {
    key: "shared_name"
    value {
      s: ""
    }
  }
}
node {
  name: "Variable_5/Assign"
  op: "Assign"
  input: "Variable_5"
  input: "zeros_2"
  attr {
    key: "T"
    value {
      type: DT_FLOAT
    }
  }
  attr {
    key: "_class"
    value {
      list {
        s: "loc:@Variable_5"
      }
    }
  }
  attr {
    key: "_output_shapes"
    value {
      list {
        shape {
          dim {
            size: 50
          }
        }
      }
    }
  }
  attr {
    key: "use_locking"
    value {
      b: true
    }
  }
  attr {
    key: "validate_shape"
    value {
      b: true
    }
  }
}
node {
  name: "Variable_5/read"
  op: "Identity"
  input: "Variable_5"
  attr {
    key: "T"
    value {
      type: DT_FLOAT
    }
  }
  attr {
    key: "_class"
    value {
      list {
        s: "loc:@Variable_5"
      }
    }
  }
  attr {
    key: "_output_shapes"
    value {
      list {
        shape {
          dim {
            size: 50
          }
        }
      }
    }
  }
}
node {
  name: "truncated_normal_3/shape"
  op: "Const"
  attr {
    key: "_output_shapes"
    value {
      list {
        shape {
          dim {
            size: 2
          }
        }
      }
    }
  }
  attr {
    key: "dtype"
    value {
      type: DT_INT32
    }
  }
  attr {
    key: "value"
    value {
      tensor {
        dtype: DT_INT32
        tensor_shape {
          dim {
            size: 2
          }
        }
        tensor_content: "2\000\000\000\002\000\000\000"
      }
    }
  }
}
node {
  name: "truncated_normal_3/mean"
  op: "Const"
  attr {
    key: "_output_shapes"
    value {
      list {
        shape {
        }
      }
    }
  }
  attr {
    key: "dtype"
    value {
      type: DT_FLOAT
    }
  }
  attr {
    key: "value"
    value {
      tensor {
        dtype: DT_FLOAT
        tensor_shape {
        }
        float_val: 0.0
      }
    }
  }
}
node {
  name: "truncated_normal_3/stddev"
  op: "Const"
  attr {
    key: "_output_shapes"
    value {
      list {
        shape {
        }
      }
    }
  }
  attr {
    key: "dtype"
    value {
      type: DT_FLOAT
    }
  }
  attr {
    key: "value"
    value {
      tensor {
        dtype: DT_FLOAT
        tensor_shape {
        }
        float_val: 0.707106769085
      }
    }
  }
}
node {
  name: "truncated_normal_3/TruncatedNormal"
  op: "TruncatedNormal"
  input: "truncated_normal_3/shape"
  attr {
    key: "T"
    value {
      type: DT_INT32
    }
  }
  attr {
    key: "_output_shapes"
    value {
      list {
        shape {
          dim {
            size: 50
          }
          dim {
            size: 2
          }
        }
      }
    }
  }
  attr {
    key: "dtype"
    value {
      type: DT_FLOAT
    }
  }
  attr {
    key: "seed"
    value {
      i: 0
    }
  }
  attr {
    key: "seed2"
    value {
      i: 0
    }
  }
}
node {
  name: "truncated_normal_3/mul"
  op: "Mul"
  input: "truncated_normal_3/TruncatedNormal"
  input: "truncated_normal_3/stddev"
  attr {
    key: "T"
    value {
      type: DT_FLOAT
    }
  }
  attr {
    key: "_output_shapes"
    value {
      list {
        shape {
          dim {
            size: 50
          }
          dim {
            size: 2
          }
        }
      }
    }
  }
}
node {
  name: "truncated_normal_3"
  op: "Add"
  input: "truncated_normal_3/mul"
  input: "truncated_normal_3/mean"
  attr {
    key: "T"
    value {
      type: DT_FLOAT
    }
  }
  attr {
    key: "_output_shapes"
    value {
      list {
        shape {
          dim {
            size: 50
          }
          dim {
            size: 2
          }
        }
      }
    }
  }
}
node {
  name: "Variable_6"
  op: "VariableV2"
  attr {
    key: "_output_shapes"
    value {
      list {
        shape {
          dim {
            size: 50
          }
          dim {
            size: 2
          }
        }
      }
    }
  }
  attr {
    key: "container"
    value {
      s: ""
    }
  }
  attr {
    key: "dtype"
    value {
      type: DT_FLOAT
    }
  }
  attr {
    key: "shape"
    value {
      shape {
        dim {
          size: 50
        }
        dim {
          size: 2
        }
      }
    }
  }
  attr {
    key: "shared_name"
    value {
      s: ""
    }
  }
}
node {
  name: "Variable_6/Assign"
  op: "Assign"
  input: "Variable_6"
  input: "truncated_normal_3"
  attr {
    key: "T"
    value {
      type: DT_FLOAT
    }
  }
  attr {
    key: "_class"
    value {
      list {
        s: "loc:@Variable_6"
      }
    }
  }
  attr {
    key: "_output_shapes"
    value {
      list {
        shape {
          dim {
            size: 50
          }
          dim {
            size: 2
          }
        }
      }
    }
  }
  attr {
    key: "use_locking"
    value {
      b: true
    }
  }
  attr {
    key: "validate_shape"
    value {
      b: true
    }
  }
}
node {
  name: "Variable_6/read"
  op: "Identity"
  input: "Variable_6"
  attr {
    key: "T"
    value {
      type: DT_FLOAT
    }
  }
  attr {
    key: "_class"
    value {
      list {
        s: "loc:@Variable_6"
      }
    }
  }
  attr {
    key: "_output_shapes"
    value {
      list {
        shape {
          dim {
            size: 50
          }
          dim {
            size: 2
          }
        }
      }
    }
  }
}
node {
  name: "zeros_3/shape_as_tensor"
  op: "Const"
  attr {
    key: "_output_shapes"
    value {
      list {
        shape {
          dim {
            size: 1
          }
        }
      }
    }
  }
  attr {
    key: "dtype"
    value {
      type: DT_INT32
    }
  }
  attr {
    key: "value"
    value {
      tensor {
        dtype: DT_INT32
        tensor_shape {
          dim {
            size: 1
          }
        }
        int_val: 2
      }
    }
  }
}
node {
  name: "zeros_3/Const"
  op: "Const"
  attr {
    key: "_output_shapes"
    value {
      list {
        shape {
        }
      }
    }
  }
  attr {
    key: "dtype"
    value {
      type: DT_FLOAT
    }
  }
  attr {
    key: "value"
    value {
      tensor {
        dtype: DT_FLOAT
        tensor_shape {
        }
        float_val: 0.0
      }
    }
  }
}
node {
  name: "zeros_3"
  op: "Fill"
  input: "zeros_3/shape_as_tensor"
  input: "zeros_3/Const"
  attr {
    key: "T"
    value {
      type: DT_FLOAT
    }
  }
  attr {
    key: "_output_shapes"
    value {
      list {
        shape {
          dim {
            size: 2
          }
        }
      }
    }
  }
  attr {
    key: "index_type"
    value {
      type: DT_INT32
    }
  }
}
node {
  name: "Variable_7"
  op: "VariableV2"
  attr {
    key: "_output_shapes"
    value {
      list {
        shape {
          dim {
            size: 2
          }
        }
      }
    }
  }
  attr {
    key: "container"
    value {
      s: ""
    }
  }
  attr {
    key: "dtype"
    value {
      type: DT_FLOAT
    }
  }
  attr {
    key: "shape"
    value {
      shape {
        dim {
          size: 2
        }
      }
    }
  }
  attr {
    key: "shared_name"
    value {
      s: ""
    }
  }
}
node {
  name: "Variable_7/Assign"
  op: "Assign"
  input: "Variable_7"
  input: "zeros_3"
  attr {
    key: "T"
    value {
      type: DT_FLOAT
    }
  }
  attr {
    key: "_class"
    value {
      list {
        s: "loc:@Variable_7"
      }
    }
  }
  attr {
    key: "_output_shapes"
    value {
      list {
        shape {
          dim {
            size: 2
          }
        }
      }
    }
  }
  attr {
    key: "use_locking"
    value {
      b: true
    }
  }
  attr {
    key: "validate_shape"
    value {
      b: true
    }
  }
}
node {
  name: "Variable_7/read"
  op: "Identity"
  input: "Variable_7"
  attr {
    key: "T"
    value {
      type: DT_FLOAT
    }
  }
  attr {
    key: "_class"
    value {
      list {
        s: "loc:@Variable_7"
      }
    }
  }
  attr {
    key: "_output_shapes"
    value {
      list {
        shape {
          dim {
            size: 2
          }
        }
      }
    }
  }
}
node {
  name: "MatMul/a"
  op: "Const"
  attr {
    key: "_output_shapes"
    value {
      list {
        shape {
          dim {
            size: 3000
          }
          dim {
            size: 10
          }
        }
      }
    }
  }
  attr {
    key: "dtype"
    value {
      type: DT_FLOAT
    }
  }
  attr {
    key: "value"
    value {
      tensor {
        dtype: DT_FLOAT
        tensor_shape {
          dim {
            size: 3000
          }
          dim {
            size: 10
          }
        }
        tensor_content: "\366\010\rD\n\327\023A\205\353\317A\000\000\250A33\263\300=\n7\300\256GA\300\244p\345@\315\314\204@\217\302\265@\315<\007D\037\205\271\30133_\301333@\366(\014\300\354Q\346\301ff\320\301\024\256\321\301\366(\200\301\354Q\230\301f\246\004D\232\231%\301\366(\006\302ff\302\301\232\231\361\300\327\243H\301\\\217\034\302\232\231\021\302q=\022\302\303\365\322\301H!\005D\217\302\365?H\341\006\301\303\365\374\301=\n\263\301\366(\264\300\205\353)\301H\341\024\302\205\353\t\302\\\217\n\302)\034\006DH\341z@H\341\272@\354Q\220\300\232\231\335\301\024\256\223\301H\341\332\277ff\326\30033\005\302\341z\364\301\217\"\013D\315\314\240A\366(\300A\037\205\317A\244pyA33\363\300\205\353\321?\270\036\223AffVA33S\301f\006\006D\037\205\243\301{\024\256\276\270\036e@\000\000\260@33\233\300\354Q\340\301ff\226\30133\003\300\256G\341\300\256\'\004D)\\\357\300)\\\337\301q=\372\300\232\231y\300\244p\375\277\256GE\301{\024\016\302q=\322\301\341z\030\301\327\263\005D{\024\306@\270\036\245\277\n\327\255\301\327\243\320\277\\\217\022@R\270\206@\341z\304\300\327\243\352\301R\270\240\301)\274\003D\n\327\373\300=\n\327\277\\\217\022\301\315\314\354\301\000\000\030\301\\\217\262\300q=j\300\366(`\301\315\314\024\302=J\003D\n\327\343\277ff\032\301\244p]\300=\n/\301=\n\373\301\341z4\301\037\205\353\300{\024\256\300\327\243|\301\205\013\001D\024\256\017\301\366(,\301=\n\225\301=\nG\301)\\\237\301\244p!\302{\024\242\301R\270\202\301R\270f\301\232I\001D\354Qx?\366(\000\301\327\243\034\301\256G\215\301\037\2057\301\232\231\227\301\\\217\035\302\354Q\232\301\205\353u\301\315\354\003D\315\314(A\354Q8A\\\217\"@\\\217B?\037\205\343\300\037\205k\277ff\006\301R\270\346\301\n\327\013\301=\252\003D\270\036\205\277\366(\030A\024\256\'A\000\000\300?)\\\217\276ff\002\301H\341\372\277=\n\027\301=\n\357\301f\326\004D{\024\226@\232\231i@33cAR\270rA{\024\306@\270\036\215@\244p]\300R\270.@\000\000\230\300\205\373\003DH\341Z\300\\\217\242?\037\205k>\341z,A\000\000<A\256G1@\244p}?\366(\334\300\327\2430\277\327\363\003D\217\302\365\275\\\217b\30033\223?\256G\341=\\\217*A{\024:A\232\231)@R\270^?\000\000\340\300\366\310\000DR\270J\301\327\243L\301\024\256\201\301\354Q8\301\303\365H\301\327\243\000\300\270\036\205\277\354Q \301\315\314<\301\341\372\376C\217\302\245\300\315\314\216\301\217\302\217\301\270\036\253\301\232\231\205\301\205\353\215\301{\024\346\300=\n\307\30033s\301\000\200\377C\270\036\205?\341z\204\300\341z\206\301\244p\207\301\315\314\242\301\\\217z\301\232\231\205\301\315\314\304\300\217\302\245\300\270\256\001D)\\\367@\354Q\014A\217\302e@\256G\021\30133\023\301\205\353I\301\217\302\375\300\037\205\017\301q=\312?\341z\004D=\n3A)\\\227A\024\256\237A\341zlA=\n\007@R\270\376?=\n\267\277\327\243P@{\024\016@\303E\005DH\341J@\217\302eAR\270\260A=\n\271A\232\231\217A\303\365\250@\270\036\245@R\270\336?\217\302\315@\232\251\003D{\024\316\300\256GQ\300\244p\375@ffzA\037\205\205A\366(8A\341z\224\277\n\327\243\277ff\226\300\270\376\001D\244p\325\300\217\302Q\301=\n\037\301\000\000\240?\024\256\017A\354Q AH\341\232@\\\217\372\300ff\376\300R(\002Dff&?\327\243\300\300)\\G\301\327\243\024\30133\363?{\024\032AR\270*A\024\256\257@\217\302\345\300\n7\004D\024\256\003A{\024\016A\244p\r@)\\\207\300\024\256\207\277{\024\"AH\341\216A33\227A\037\205[AHq\004D\303\365h?q=\022A\327\243\034A\024\256G@\341zT\300\232\231\031\276\327\2430A\366(\226A\341z\236A)\274\006DR\270\022A\256G!A\341z\222A\024\256\227A\327\243DA33\273@\354Q\020A\024\256\241A\037\205\337A\327C\010D\n\327\303@\327\243tA\232\231\201A\244p\303A\327\243\310A\256G\223A\037\205?Aq=rA\327\243\322A\315,\nD\341z\364@\366(\\A\244p\267AR\270\276A\256G\000BH\341\002Bff\320AH\341\234Aq=\266A\315|\rD\000\000TA\270\036\247A{\024\330AR\270\020B)\\\024B\256G5BH\3417B33\035B\244p\003B\205k\014D\327\243\210\300\024\256\017A\303\365\204A\205\353\265A\256G\377A\256G\003B33$B\315\314&B\270\036\014B\037\005\014D\315\314\314\277\n\327\273\300\366(\354@\354QpA\270\036\251A\341z\362A\217\302\371A\315\314\035Bff B\366\370\013D\\\217B\276\270\036\345\277\205\353\301\300{\024\346@\256GmA\232\231\247A\303\365\360Aq=\370A=\n\035B\205{\nDR\270\276\300\315\314\304\300\000\000\370\300\354Q@\301\244p\235?\205\353\rA\n\327oA\256G\301A\\\217\310A)<\010D\n\327\017\30133o\301q=r\301\205\353\205\301{\024\250\301\354Q\370\300\217\302\365\275\000\000\300@R\270rA=*\010D)\\\217\276\354Q\024\301\024\256s\301R\270v\301\366(\210\301\354Q\252\301\327\243\000\301\315\314\314\276=\n\267@\232y\nD\n\327\023A)\\\017A\217\302\365\274\024\256\277\300\217\302\305\300\303\365\370\300\315\314@\301\232\231\231?\244p\rA\037\025\013D\037\205\033@R\270:Aq=6A\232\231\031@\n\327c\300\000\000p\30033\253\300\205\353\031\301\354Qh@\256\207\014D\256G\271@\037\205\003A\024\256\213A\244p\211A=\n\003AR\270\016@\\\217\002@\256G\341>\270\036u\3003#\014D\303\365\310\277=\n\207@\315\314\324@q=~A\217\302yA\n\327\323@\303\365(?\327\243\360>\327\243\220\277\303\265\013DH\341\332\277\205\353Q\300\327\243 @{\024\236@H\341bAff^A\270\036\235@ff\206\277R\270\236\277f\326\tD\024\256\357\30033\023\301\354Q,\301)\\\237\30033#\300{\024\326@\270\036\315@\270\036%\300\327\243\010\301\244\360\tD\205\353\321>\\\217\342\300\327\243\014\301\217\302%\301q=\222\300\303\365\010\30033\343@q=\332@H\341\n\300\354\021\010D)\\\357\300q=\342\300\303\365h\301\366(\202\301R\270\216\301\315\314@\301\205\353\031\301\\\217\302\276\303\365(\277\244\300\007D\\\217\242\277\000\000\014\301\244p\005\301\256G}\301\354Q\214\301H\341\230\301\270\036U\301q=.\30133\323\277\256W\nD\217\302%A\244p\021A{\024\316?\256G\001@=\n\257\300\217\302\345\300\000\000\014\301\244p=\300\024\256\007\277\232\271\nD\n\327\303?q=>A\205\353)A\303\365H@33c@\366(|\300\315\314\264\300=\n\347\300=\n\267\277\n\027\013DH\341\272?)\\?@\232\231UA\256GAA33\223@\354Q\240@R\270\036\300{\024\206\300\354Q\270\300\315<\rD\244p\tA\315\314 A\256G9A\037\205\257A)\\\245A=\nSA\232\231YA\037\205\303@\315\314\214@\256\'\rD\303\365\250\276\366(\004A\037\205\033A\000\0004AH\341\254AR\270\242A\217\302MA\354QTA\303\365\270@\232\251\020D\341z`A33[A\354Q\262A\000\000\276Aq=\312A\\\217\016B\341z\tB\270\036\327Aff\332A\000\000\020D\232\231)\300{\0246A\315\3140A\270\036\235A\315\314\250A=\n\265A\303\365\003B\217\302\375A\205\353\301A\\O\020DR\270\236?\341z\264\277\205\353IA\327\243DA=\n\247AR\270\262A\303\365\276A\205\353\010B\n\327\003B\354\321\017DH\341\372\277\354Q8\277\024\256W\300\\\217*A\256G%A)\\\227A=\n\243A\256G\257A{\024\001B\341\252\021D\341z\354@\217\302\255@\244p\325@\327\243\200@ff\220A\217\302\215A\341z\322A\366(\336Aff\352Aq\225\021D\037\205\253\276\217\302\341@=\n\243@R\270\312@\n\327k@R\270\215A{\024\213A\315\314\317A\341z\333A\270.\022D\256G\031@\n\327\003@33\027A\024\256\357@\024\256\013A\\\217\302@H\341\240Aq=\236A\303\365\342A\000\220\021DR\270\036\300{\024\256\275=\n\327\276=\n\337@\354Q\240@\000\000\310@fff@=\n\215Aff\212A\303\305\016D\\\2172\301q=Z\301\205\3533\301\256G9\301{\024\206\300\315\314\304\300\270\036\235\300\205\353\361\300=\n\317@\037\005\020D\024\256\237@\244p\305\300ff\n\301\366(\310\300H\341\322\300\315\314L?\341z\224\277\n\327\243=\341z$\300f\306\016D)\\\237\300\n\327#<ff2\301{\024Z\301\217\3023\301\270\0369\301\217\302\205\300\341z\304\300\315\314\234\300\205\313\020D\256G\001AffF@\244p\001A\341zD\300\232\231\261\300\205\353I\300)\\_\300\232\231y@\354Q\370?\2567\022D{\024\266@\354Q\\A\327\243\014A\341z\\A\024\256\'@)\\\017>q=\"@\315\314\014@\244p\031A\3541\022D\354Q\270\27533\263@H\341ZA33\013A=\n[A\205\353!@\315\314L=\341z\034@=\n\007@=\252\021D\024\256\007\300\244p\r\300R\270^@\303\3658A\\\217\322@\270\0369A\205\353\321>\341z\004\300ff\246>\267n\017D\261\341\016\3016\3150\301\331=2\3018g\256\300HP(@\nh\026\300\037\364(@TR\010\301i\0000\301\037\305\024D\001\315\252AR\270FA\315\314$A)\\#Aff~A\n\327\277A\000\000\230A\205\353\277A\256GMA\024^\023D\037\205\263\300s\327{A\205\353\331@{\024\226@33\223@\327\243$A\303\365\222Aq=VA=\n\223A\\\257\024D\327\243\250@{\024\256\276\257\024\250A\256GAA)\\\037A\205\353\035A\303\365xA\270\036\275A\256G\225A\270\376\024DR\270\236?\354Q\320@fff?4\000\262A\270\036UA333A\217\3021Aff\206A=\n\307AfV\024D\354Q(\300\205\353\261\277\354Qx@\244p\335\277\367\365\234A=\n+A\270\036\tA\024\256\007AR\270bAHA\023D\\\217\212\300R\270\336\300=\n\267\300ff\346\276\205\353\301\300@\244tA\037\205\313@\024\256\207@\315\314\204@f\246\023Dq=\312?\000\0000\300\366(\254\300\341z\204\300\327\243\220?)\\\217\300\367\365\206A{\024\376@q=\272@\ng\022D\024\256\237\300q=Z\300\024\256\367\300\205\353%\301{\024\022\301=\nw\300\037\205\027\301\344\024>A\315\314<@\341\332\022D\024\256\347?\037\205K\300\315\314\314\277\217\302\275\300\303\365\010\301q=\352\30033\003\300\270\036\365\300\246\n[Af\346\016D\270\036}\301\366(`\301\000\000\230\301)\\\213\301\000\000\256\301=\n\303\301\270\036\271\301\303\365\216\301\n\327\273\301{\204\rD\303\365\260\300\315\314\252\301\354Q\234\301q=\304\301\232\231\267\301q=\332\301\256G\357\301)\\\345\30133\273\301\232I\017D\\\217\342@ff\306?\354Qd\301)\\G\301\232\231\213\301\205\353}\301\232\231\241\301\327\243\266\301R\270\254\301{D\rD\256G\001\301\000\000\200\277\303\365\320\300\315\314\262\301\354Q\244\301q=\314\301\232\231\277\301q=\342\301\256G\367\301\360\227\rDy\351\246?\376\324\330\300\343\245\233>d;\247\3005^\250\301T\343\231\301\331\316\301\301\002+\265\301\331\316\327\301\n\327\014D`\345@\300H\341\332\277\327\243\034\301\244p-\300\n\327\003\301\341z\300\301\000\000\262\301\205\353\331\301\256G\315\301H1\016D\270\036\255@\020X\031@\315\314l@\366(\214\300\315\314,@\270\0365\30033\225\301R\270\206\301\327\243\256\301R\370\rD\n\327c\277\327\243\220@\234\304\300?\n\3273@\327\243\250\300\024\256\347?{\024n\300\354Q\234\301\n\327\215\301\270\256\014D\315\314\244\300\256G\301\300\256G!\277L7i\300\217\302\025\300R\270&\301\217\302U\300\205\353\r\301\037\205\305\301\354\261\017D\315\314@A\315\314\334@\354Q\300@R\2706A\372~\006A)\\\033A\327\243\320?)\\\013A\037\205K@\232\251\017D\270\036\005\276R\270>A\327\243\330@\366(\274@\327\2434A\177j\004A\256G\031A\000\000\300?\256G\tA\270^\017D\217\302\225\277ff\246\277\000\000,A33\263@R\270\226@\205\353!AZd\343@\\\217\006A\303\365\250>=\212\021DH\341\nA\354Q\360@\366(\354@\244p\233A\341zdAq=VAff\226Au\223|AR\270\210A\n\267\022Dff\226@{\024VA)\\CA\256GAA=\n\301A\n\327\227AR\270\220A\000\000\274AT\343\243A\\\037\022D\024\256\027\300\270\036\025@\366(0A\244p\035A)\\\033A{\024\256AH\341\204A\037\205{A=\n\251A\256\327\021D)\\\217\277)\\_\300H\341\232?q=\036A\037\205\013A\244p\tA\270\036\245A\n\327wA\232\231iA\327\243\021D)\\O\277=\n\367\277\232\231\211\300\315\314\314>\256G\021A\270\036\375@\303\365\370@\327\243\236AH\341jA\315\014\021D=\n\027\300H\341J\300\256G\211\300\270\036\325\300H\341\372\277=\n\327@\232\231\261@\244p\255@\217\302\213A\nw\020D\217\302\025\300ff\226\300\354Q\260\300\366(\324\300\000\000\020\301\232\231\211\300\366(\214@\244pM@\270\036E@\000\300\016D\037\205\333\30033\023\301\303\3658\301\205\353E\301\n\327W\301\217\302}\301\\\2172\301R\270\036\300\232\231i\300\315L\016Dff\346\277\\\217\n\301\000\0000\301\217\302U\301R\270b\301\327\243t\301\256G\215\301)\\O\301\303\365\210\300f\346\016D\232\231\031@\232\231\031?\354Q\310\300\232\231\t\301)\\/\301\354Q<\301q=N\301\366(t\301\303\365(\301\037U\020D)\\\267@{\024\002A\\\217\312@\024\256\007\277\024\2567\300)\\\247\300\256G\301\300\270\036\345\300\341z\030\301)|\020D\366(\034?H\341\312@\n\327\013A{\024\336@\n\327\243=\327\243\020\300\n\327\223\300\217\302\255\300\232\231\321\300\270~\021D\256G\201@\315\314\224@{\024&A\341zLA\024\256/A\n\327\203@\n\327\343?\341z\024\277\205\353\261\277\037\205\022D33\203@q=\002A\000\000\014A\024\256gA=\n\207A\256GqA\037\205\003A\366(\274@\256Ga@\024n\023D\303\365h@\024\256\367@\341z<Aq=FA\303\365\220A\366(\244A\217\302\225A\217\302=A\354Q\030A\244@\021D)\\\013\301q=\242\300\354Qx\277\341zD@\037\205k@\\\217\026A\303\365<A\366( A\232\231I@f\306\021D\217\302\005@\n\327\323\300R\270>\300)\\\217?\270\036\245@\327\243\270@\000\0008Aff^A\232\231AAfV\021D\000\000\340\277{\024\256>\205\353\005\301)\\\227\300\256G!\277q=Z@\327\243\200@\000\000\034AffBA\256\347\017D)\\\267\300)\\\357\300\341z\254\300\232\231a\301)\\\'\301\037\205\313\300\341z\024\300H\341\332\277\327\243\200@fF\017D\256G!\300\000\000\004\301\000\000 \301\270\036\375\300\303\365\204\301\024\256O\301{\024\016\301H\341\232\300)\\\207\300\315\374\020D33\333@\\\217\212@33\263\277\232\231I\300\024\256\207\277\354Q\034\301\366(\304\300\205\353\001\300\327\243\000@H1\022Dq=\232@R\270:Aff\022AH\341Z@\217\302\325?\327\243p@ff\236\300\024\256\247\277\\\2172@HQ\023D\000\000\220@\270\036\025A)\\\201AffZA\244p\375@\244p\305@\366(\004Aff\346\276\366(L@\037\005\025D\205\353\331@\303\3654A=\n\201A\n\327\267A\024\256\243A\024\256kA\024\256OA\270\036qA\037\205\313@\256\327\022D)\\\013\30133\363\277ff&@\244p\355@\354QdA\000\000<A\327\243\300@\327\243\210@\037\205\313@RH\021D\024\256\307\30033o\301q=\002\301\303\365h\300=\n\227?\341z\000A\354Q\260@\256Ga\276\366(\374\277\\\377\022D\037\205\333@R\270\036?\244p\001\301\n\327\243\277{\024N@\327\243\000Aq=nA\205\353EA\341z\324@\327\303\017DH\341N\301q=\302\300\303\365D\301\366(\250\301)\\c\301)\\\033\301\341z\234\300H\341\372?)\\\017\277fF\020D\\\217\002@q=.\301\303\365\200\300\354Q$\301\n\327\227\301R\270B\301\244p\365\300ff6\300\000\000\200@\n\027\020D\244p=\277ff\246?{\024:\301\327\243\230\300\366(0\301\217\302\235\301\\\217N\301\\\217\006\301\217\302e\300\nW\020D\000\000\200?\270\036\205>33\023@{\024*\301\256Gq\300\366( \301\217\302\225\301\\\217>\301\270\036\355\300H\021\016D\244p\021\301\244p\001\301\256G\r\301\256G\331\300\217\302\235\301\217\302M\301\315\314\230\301\341z\336\301\000\000\250\301\037\205\016D\024\256\347?\303\365\350\300\303\365\310\300\327\243\340\300)\\\237\300\256G\217\301\315\3140\301\354Q\212\301\000\000\320\301\354\321\017Dff\246@\354Q\340@\270\036\005\300q=\212\277\303\365\350\277\256Ga>)\\K\30133\273\300\244pA\301fV\020D\341z\004@\327\243\350@\256G\021A\n\327#\274\244p}?\000\000\200>\\\217\022@q=*\301\205\353q\300\\\357\014D\217\302Y\301\327\2438\301H\341\312\300\303\365\220\300\205\353Y\301\205\353I\301\217\302U\301\270\0365\301\000\000\302\301\000 \017D\366(\014A33\233\300\205\3531\300H\341\032@)\\\207@\037\205\233\300=\nw\30033\223\300\n\327#\300R8\014D\205\3539\301=\n7\300\217\302\203\301fff\30133\023\301\341z\354\300\n\327\203\301\024\256w\301\217\302\201\301\\\037\010D\270\036\203\301{\024\340\301\000\000\232\301\244p\003\302\354Q\366\301R\270\314\301q=\276\301\341z\003\302\303\365\376\301qM\005D\341z4\301)\\\335\301\366(\035\302q=\364\301\\\2170\302\256G(\302\341z\023\302q=\014\302\232\2310\302)|\006D)\\\227@\232\231\321\300\037\205\267\301q=\n\302ff\316\301\327\243\035\302)\\\025\302\\\217\000\302\327\243\362\301\354\201\004D\270\036\375\300\037\205K\300)\\g\301\315\314\366\301H\341)\302\n\327\006\302\256G=\302\000\0005\30233 \302\244 \003D\327\243\260\300H\341V\30133\013\301\n\327\237\301\341z\021\302\303\365?\302\205\353\034\302)\\S\302{\024K\302\303\225\377C\244pU\301H\341\226\301\366(\326\301\354Q\260\301\256G\005\302\n\327F\302\354Qu\302\256GR\302)\\\204\302\3035\002DR\270\032AH\341j\300=\n\023\301\315\314\210\301\205\353E\30133\275\301\366( \302\327\243N\302\232\231+\302\217\242\003Dff\266@\205\353uA\205\353\001@)\\_\300ff6\301\244p\325\300\232\231\217\301)\\\t\302\n\3277\302q-\005D\244p\305@\205\353=A\354Q\254A33\003A\037\205+@)\\\247\300\000\000\000\277\341z<\301)\\\341\301\270\376\007D\354Q4A\037\205\213A\270\036\271Aq=\003B\217\302\233A33_A\256G\301@\354Q,A\\\217\002\277\354\361\006Dff\206\300q=\342@\n\327SA\037\205\227AH\341\344A\354QtA\000\000\034A\037\205\353?q=\322@H1\007D\244p}?\244pM\300\303\365\000A\024\256cA\244p\237A\315\314\354A{\024\202A\n\327+A\270\0365@\2329\tD{\024\002A\205\353\021A\244p\235@\037\205\201AH\341\262A\341z\340A\205\353\026B\270\036\303A\303\365\226A\037U\tD\366(\334>\303\365\010A\315\314\030A33\253@\303\365\204A\354Q\266A\205\353\343A\327\243\030B\\\217\306A\327\223\tDH\341z?\341z\264?\327\243\030A\341z(A\\\217\312@\315\314\214A\366(\276A\217\302\353A\\\217\034B\037\305\013D\354Q\014A\000\000\034AH\341\"A\341z\222Aff\232A\232\231qA\303\365\322A\366(\002B\303\365\030B\024\316\nD=\nw\300\270\036\235@\341z\274@q=\312@33gA=\nwA\n\3273A{\024\264A\244p\345A\n\207\nD{\024\216\277=\n\237\30033s@\303\365\230@R\270\246@\244pUA\256GeA{\024\"A33\253A\341z\010D=\n\003\301\315\314\024\301\\\217R\301\341z\214\300q=Z\300R\270>\300\315\314\244@\341z\304@\354Q\370?\217\202\007D\354Qx\300\270\036A\301H\341R\301\354Q\210\301\354Q\004\301\256G\351\300\037\205\333\300\\\217\242?\327\243\020@\244@\007D\n\327\203\277\270\036\235\300\232\231Q\301)\\c\301\\\217\220\301\315\314\024\301\270\036\005\301\341z\374\300\217\302u>\\\337\010D)\\\317@ff\256@\303\365\310?\n\327\323\300)\\\367\300\244p9\301\341z4\300\037\205\353\277\341z\264\277\217\222\tD333@\341z\024A\000\000\004A\n\327\213@\341zt\300\217\302\235\300\327\243\014\301\n\327\243\274\217\302u?\327\323\010DR\270>\300\354Q8\276\232\231\311@\327\243\250@\205\353\261?\232\231\331\300\270\036\375\300\354Q<\301\000\000@\300RX\010D=\n\367\277\270\036\235\300=\n\007\300\n\327\213@\217\302U@q=\n\277\024\256\013\301\244p\035\30133[\301\232\031\010DH\341z\277q=:\300\341z\274\300\217\302E\300\303\365X@=\n\027@\\\217\302\277)\\\033\301\270\036-\301\244 \006D\341z\374\300\205\353\r\301\315\314,\301\341z\\\301\024\256/\301\000\000\220\300\303\365\260\300\\\217\026\301\315\314\214\301\354\301\005D\244p\275\277\205\353\025\301\232\231%\301\341zD\301\366(t\301)\\G\301)\\\277\300\354Q\340\300q=.\301\\?\006DH\341\372?\217\302\365>\270\036\355\300q=\006\301\270\036%\301\315\314T\301\000\000(\301\327\243\200\300\232\231\241\300\037\265\005Dq=\n\300\315\314L\276=\n\327\277\270\036\031\301\315\314(\301\024\256G\301)\\w\301\\\217J\301\217\302\305\300\000`\006DH\341*@\\\217\002?{\024\036@\244p}?\315\314\334\300\366(\374\300\303\365\034\301\327\243L\301\n\327\037\301H\321\006D\\\217\342?{\024\216@\205\353\021@\024\256\207@\327\2430@\366(\244\300\037\205\303\300\327\243\000\301\354Q0\301\037E\007D\024\256\347?\270\036e@\000\000\310@H\341\202@\232\231\301@q=\222@\341zT\300\232\231\211\300)\\\307\300\256\027\007D\217\3025\277\315\314\214?\024\2567@\256G\261@\354QX@H\341\252@=\nw@\303\365\200\300\354Q\240\300\037u\007DH\341\272?\000\000@?\n\327#@\\\217\212@\000\000\340@H\341\232@\232\231\331@q=\252@\341z$\3003s\005D\341z\000\301q=\322\300\303\365\350\300=\n\257\300\315\314l\300\n\327\203\277\366(L\300\244p\235\277\244p-\300\000p\005D\315\314L\275\256G\001\301\n\327\323\300\\\217\352\300\327\243\260\300\000\000p\300q=\212\277)\\O\300\n\327\243\277{\324\004D\037\205\033\300R\270\036\300\366((\301\315\314\020\301\366(\034\301ff\376\300\217\302\305\300\327\243`\300\244p\265\300\327S\006D\024\256\277@\n\327c@\327\243`@\327\243\220\300\n\327C\300\256Gq\300H\341\372\277\\\217B\276R\270\036@\244P\003D\315\314@\301\205\353\301\300\n\327\007\301\327\243\010\301\\\217\204\301\217\302q\301\270\036}\301\366(`\301\n\327C\301\270\276\003D\366(\334?\256G%\301H\341\212\300\327\243\330\300q=\332\300\232\231m\301q=V\301\232\231a\301\327\243D\301\256W\005D\341z\314@\217\302\001A\366(|\30033\003@\\\217\302\276\366(\334\276)\\\007\301\000\000\340\300R\270\366\300\327\203\003D\205\353\351\300\037\205k\277\315\314L?\000\0004\301\354Q\250\300{\024\366\300\024\256\367\300\354Q|\301\303\365d\301\303\025\004D\205\353\021@\303\365\240\300{\024\256?\270\036E@\037\205\017\301R\270>\300\270\036\255\300R\270\256\300\n\327W\301=\252\001DH\341\032\301\315\314\354\300)\\k\301\270\036\005\30133\323\30033\225\301\\\217J\301\244pq\301q=r\3013s\000D\037\205\233\300\327\243h\301\366(D\301\\\217\234\301H\341R\301)\\7\301{\024\274\301\366(\214\301\232\231\237\301\354\261\367C\256G\223\301\366(\272\301\315\314\003\302)\\\365\301\205\353\027\302R\270\374\301\303\365\356\301\024\256\'\302R\270\017\302\354q\374C\000\000\030A\\\217\016\301\354Q\\\301\232\231\273\301)\\\251\301\n\327\343\301R\270\260\301\303\365\242\301\024\256\001\302\315\214\377CR\270\306@)\\{A\315\314,\300\205\353\361\300\205\353\211\301)\\o\301\366(\262\301{\024~\301\\\217b\301f\026\001D\000\000\250@)\\7A\024\256\247A33#@\n\327\023\300\n\327?\301)\\\033\301\366(\210\301{\024*\301\2567\003D\354Q\010A\354Q\\A\n\327\237A\n\327\353A\270\0361AR\270\306@{\024^\300\354Q\230\277\000\000\010\301\303\245\004D=\n\267@\n\327cA\205\353\233A\232\231\315A\315\314\014B\354Q\206AH\341>A\000\000\020@\303\365\220@H1\004D\303\365\350\277\232\231y@R\270FA)\\\215A=\n\277A\037\205\005B\037\205oA\217\302!A\366(\334>\354\201\005D\354Q\250@\366(\\@\\\217\022A\244p\215A\244p\267A\270\036\351A\\\217\032B\n\327\241A\205\353uA\037\225\004D\315\314l\300\024\256\307?\270\036\205\276R\270\256@\024\256_A\n\327\231A\037\205\313A\217\302\013Bq=\204A\341\232\004D\354Q\270==\ng\30033\323?{\024.\276\232\231\261@\270\036aA\\\217\232Aq=\314A\270\036\014B\232\231\003D\327\243\200\300\037\205{\300\366(\364\300\024\256\027\300{\024\206\300\n\327\303?\315\314 A\315\314tA{\024\254A\3273\003D\037\205\313\277\037\205\263\300\327\243\260\300\037\205\023\301\244p}\300\303\365\270\300\217\302u\275)\\\007A)\\[A\256w\000D=\n/\301\341zH\301ff\204\301\024\256\203\301\256G\241\301ffn\301\217\302\205\301\000\0000\301R\270\036\300\341\372\372C\\\217>\301\315\314\266\301\037\205\303\301\024\256\343\301\303\365\342\301\256G\000\302\341z\326\301=\n\345\301\256G\267\301\315\214\372C\366(\\\277\354QL\301\024\256\275\301ff\312\301\\\217\352\301\n\327\351\301R\270\003\302)\\\335\301\205\353\353\301\nW\373Cq=\312?\354Q8?=\n3\301=\n\261\301\217\302\275\301\205\353\335\30133\335\301\315\314\372\301R\270\320\301\303\025\370C\354Q\320\300\217\302\235\300\256G\271\300\232\231\215\301\270\036\345\301\n\327\361\301\000\000\t\302\327\243\010\302\244p\027\302fF\366C\024\256g\300{\024\"\301\315\314\010\301\\\217\026\301\\\217\252\301=\n\001\302ff\007\302\341z\027\302\270\036\027\302\n\027\370C\354Qh@\n\327#<\000\000\320\300\244p\235\300\303\365\270\300\037\205\215\301=\n\345\301\217\302\361\301\303\365\010\302\\o\372C{\024\226@\270\036\005Aff\226@\024\256\347\277\037\205k\276\037\205\213\277\000\000P\301\037\205\277\301q=\314\301\037\345\372C\037\205k?\037\205\263@\n\327\023A\n\327\263@\n\327c\277\327\2430?{\024.\276\256GA\301\366(\270\301=\n\376C\256G\311@R\270\346@ff>A\341zxA\\\217>A\315\314\254@)\\\337@\n\327\303@\256G\271\3003s\375C=\n\227\277\037\205\243@\303\365\300@\037\205+A\232\231eA\024\256+A=\n\207@\232\231\271@{\024\236@\217\202\001Dq=2A)\\\037A\000\000\202A)\\\211AH\341\256A\205\353\313A\303\365\256A\217\302uA\037\205\207A\366\230\005D\315\314\202A\205\353\333A\341z\322Aff\002B{\024\006B\n\327\030B)\\\'BH\341\030B\024\256\375A\315\374\006D\205\353\261@\256G\257A33\004B\303\365\376A\327\243\030B\354Q\034B{\024/B\232\231=B\270\036/Bq\315\005D\024\256\227\300\205\353Q?)\\\211A\341z\342A=\n\331A\024\256\005B)\\\tB\270\036\034B\327\243*BR\250\001D\327\243\204\301\\\217\252\301\366(|\301=\n\027?\024\256;A\315\314(AR\270\206A{\024\216A\232\231\263A\000\000\377C{\024\n\301\024\256\311\301\232\231\357\301\270\036\303\301\327\243\000\301ffF@\217\302\365?)\\\003A{\024\022A{T\377C\303\365(?=\n\377\300ff\304\301\354Q\352\301\n\327\275\301\366(\354\300\327\243p@\270\036%@\205\353\rAH\241\005DH\341\276A\366(\304Aq=~A\327\2430\277\217\302\255\300\270\036\005>\n\327\203A\303\365\334A\037\205\323A\270\036\004D\256G\301\300\\\217\216A\n\327\223A\232\231\035A)\\\327\300\037\2057\301\270\036\275\300=\n\'A\327\243\254A\\O\004D\\\217B?\303\365\250\300\327\243\224A\205\353\231A\217\302)A=\n\277\300)\\+\301\315\314\244\300333A\244\260\002D)\\\317\300=\n\267\300\366(<\301\232\231AA\366(LA\366(\204@33G\301\037\205\211\301{\024:\301\037\345\003Dq=\232@\341z\324\277fff\277{\024\336\300)\\\207A\327\243\214A33\017A\366(\364\300\205\353E\301\000\300\004DH\341Z@\n\327\003A\256G\341?\256G!@\256Ga\300R\270\242A\000\000\250A\205\353EAR\270\206\300\037\365\003DH\341J\300\000\000\200>q=\242@\341z\264\277ff&\277{\024\326\300)\\\211A\327\243\216A33\023A)<\006D\217\302\021A{\024\276@\217\302\025AH\341bAff\366@)\\\007AH\341\032@q=\322A\037\205\327A\024\376\005D\354Qx\277q=\002A=\n\237@q=\006A)\\SA)\\\327@\024\256\357@\232\231\271?\341z\312A\205\273\007DR\270\336@\024\256\277@\232\231qAH\341>A\232\231uA)\\\241A=\n[A33gA\\\217\006A\244@\tD\\\217\302@\327\243PA\270\036AA\244p\251A{\024\220A\244p\253A\000\000\322A\366(\236Aq=\244A\303\265\007D\244p\305\300\354Q\270\275\n\327\333@\315\314\274@\366(pA\244p=A\366(tA\327\243\240A\232\231YA\315\354\006D\303\365H\300\303\365\024\301R\270N\300R\270n@\327\2430@\205\353=A33\013A\205\353AA\037\205\207A\256\267\007DH\341J@\217\302\365<\341z\304\300\217\302u\275\315\314\334@\217\302\275@\327\243pA\205\353=A\327\243tA\315\274\006DH\341z\300\000\000@\277\303\365x\300\303\365 \301R\270~\300R\270>@\327\243\000@\205\3531Aff\376@=\372\004D\256G\341\300)\\/\301\256G\371\300H\341.\301\315\314\210\301\354Q0\301\205\353\201\300\303\365\240\300\\\217\202@\303\005\006D\217\302\205@=\n7\300\303\365\330\300=\ng\300\000\000\330\300R\270N\301H\341\332\300\217\302\365=\232\231Y\277\256\367\007D\303\365\370@)\\?A\244p\235@\000\000\200?\244p\205@\n\327\203?\341z\244\300\327\243p?\315\314\374@\270\336\nD\217\3029A\270\036\233A\\\217\274Aq=\204A\217\302IA\341z|Aq=JA=\n\317@\315\314HA\232\231\013DH\341:@\341zhA\341z\262A\205\353\323A\232\231\233A\341zxA\232\231\225A\303\365xAq=\026A\303\325\016D=\nOA\217\302}A\217\302\333A\000\000\rBR\270\035B\\\217\001B\217\302\343A\270\036\375A\000\000\344A\366h\017D33\023@\n\327sA\256G\221A\366(\356A33\026B\205\353&B\217\302\nB\366(\366A\217\302\007B\256W\017Dq=\212\276\205\353\001@\037\205oA\270\036\217A\000\000\354A\270\036\025B\n\327%B\024\256\tB\000\000\364A\037\325\017DH\341\372?\354Q\330?)\\\177@\244p\207A\315\314\236A\024\256\373A\303\365\034B\024\256-B\037\205\021B\327\353\rD\327\243\364\300\205\353\265\300\\\217\276\300\205\353i\300\\\217\024A\256GCA\037\205\276A\217\302\374A\232\031\017Bf6\016D\270\036\225?)\\\317\300\327\243\220\300\256G\231\300)\\\037\30033\'A\205\353UA\n\327\307A=\n\003B\244\300\nD\244p]\301\315\314J\301\\\217\242\301H\341\222\301=\n\225\301\327\243\202\301\303\365X\300\327\243\360\276q=2A\205\313\tD\270\036u\300)\\\215\301=\n\204\30133\301\301\037\205\261\301\024\256\263\301\256G\241\301=\n\347\300\232\231\211\300\244\340\nD\\\217\212@\000\000\000?\244pU\301\315\314B\301\\\217\236\301H\341\216\301=\n\221\301\256G}\301\303\3658\300{\324\010D=\n\003\301=\nw\300{\024\366\300q=\254\301\205\353\242\301{\024\340\301ff\320\301\\\217\322\301\366(\300\301\244\240\nD{\024\346@\000\000\200\277\270\036U@\000\000\000\277\244pe\301\315\314R\301\\\217\246\301H\341\226\301=\n\231\301\303\265\tDH\341j\300\256Ga@\244p\225\300{\024\256\276\244p\205\300{\024\220\301\217\302\206\301\205\353\303\301q=\264\301\000\340\013D\\\217\nA\024\256\237@H\341BA)\\\177@\270\036\005A\024\256\217@\232\231\025\301\303\365\002\301\256G}\301\\\177\013D\256G\301\277\315\314\344@R\270^@R\270*AR\270\036@\205\353\331@R\270>@\217\302-\301\270\036\033\301\n\027\014D\024\256\027@\366(\\?\354Q\030A33\273@\327\243PA33\233@H\341\022A33\253@\n\327\007\301\327\263\013Dff\306\277\205\353Q?\327\2430\277=\n\377@\232\231\211@\n\3277A33S@\366(\364@33s@)\214\016D{\0246A\256G\035A33CA=\n+A\315\314\232AH\341zA\303\365\266AH\341jA{\024\230A=\262\013D\341z6\301\315\314\314\274\232\231\311\277\037\205K?=\n7\277q=\376@\315\314\210@\244p7A\232\231Q@\341\312\nD)\\g\300\354Qp\301\303\365h\300{\024\246\300\341z4\300\\\217\212\300\\\217\212@\303\365(?33\373@\303\025\tD\\\217\332\300\270\036\'\301\315\314\256\301\037\205\'\301\354Q@\301ff\032\301\\\2172\301\000\000 \300\244p\305\300\354\001\nD\366(l@\303\365H\300\366(\330\300\256G\221\301\303\365\330\300\256G\005\301R\270\276\300=\n\357\300\354Q\230?\000\000\tD\303\365\200\300{\024\256\276\244p\345\300\\\217,\301\037\205\261\301\303\365,\301\217\302E\301\n\327\037\301\000\0008\301\327\243\007D{\024\256\300\037\205\027\301\303\365\270\300\217\302I\301\315\314\201\301=\n\335\301\000\000\202\301ff\216\301H\341v\301\354\341\005D\303\365\340\300\037\205G\301\000\000\204\301\303\365L\301\270\036\235\301=\n\272\301\327\243\n\302q=\272\301\327\243\306\301\3660\006D{\024\236?\244p\271\300\217\3023\301q=t\301339\301q=\223\301\366(\260\3013\263\005\302)\\\260\301HA\006D\\\217\202>R\270\276?\256G\261\300\024\256/\301\366(p\301\270\0365\30133\221\301\270\036\256\301\024\256\004\302\ng\007DH\341\222@=\n\233@\\\217\302@33s\277\341z\314\300R\270&\301)\\\327\300\303\365X\301ff\211\301\3541\007D\341zT\277\327\243p@\341z\200@\000\000\250@\n\327\343\277=\n\347\300\000\0004\301\205\353\361\300q=f\301\244\000\007D\270\036E\277\315\314\314\277)\\?@\024\256O@)\\\217@33#\300\024\256\377\300\354Q@\301\256G\005\301\341\312\006D=\nW\277{\024\316\277\366(\034\300\232\231\t@\205\353\031@\303\365h@\303\365X\300\256G\r\301\217\302M\301\366\230\004D\341z\014\301\205\353\031\301q=&\301\037\2053\301\366(\324\300\000\000\314\300\341z\244\300R\270B\301H\341\214\301\354!\005D\303\365\010@\341z\324\300)\\\357\300\000\000\004\301\256G\021\301\024\256\217\300\037\205\207\300\000\000@\300\341z \3013s\005D\\\217\242?q=Z@\n\327\253\300R\270\306\300)\\\337\300\205\353\371\300{\024N\300\217\302=\300\244p\335\2773\003\003D\000\000\034\301\024\256\007\301H\341\312\300\205\353q\301)\\\177\301\n\327\205\301\341z\214\301\037\205O\301\244pK\301R\330\005D\256G5Aq=\312?ff6@\024\256\237@\\\217r\300\366(\224\300\315\314\254\300)\\\307\300\205\353\321\277\024~\005D\341z\264\277R\270\036A{\024.>\354Q\270?\270\036e@ff\246\300\256G\301\300\205\353\331\300\341z\364\300\\\327\006D\327\243\254@=\n\177@=\nuA{\024\262@R\270\332@\232\231\017A\024\256G>\270\036%\277\270\036\265\277\000\300\010D\354Q\364@\341zPA\205\3539A\232\231\267A33SA\037\205gAH\341\204A\\\217\372@\024\256\337@\327C\rD\341z\220A\\\217\315AR\270\370A\244p\355A=\n$B{\024\372A\270\036\002B\024\256\nB\270\036\317A\256\327\nD=\n\033\301\205\353\005A=\n\200A33\253A\205\353\237A\\\217\372A\\\217\254AR\270\266A\n\327\307A\205k\nD\354Q\330\277{\0246\301\217\302\325@=\neA\024\256\235Aff\222A=\n\355A=\n\237A33\251A\037E\tD33\223\300\256G\311\300\024\256\177\301\270\036\005@\244p\033A\217\302qA33[Aq=\310A\341ztA\303U\006D\n\327;\301R\270\202\301q=\220\301\217\302\335\301\\\217\032\301\232\231\001\300\024\256W@H\341\372?\327\243TA\232y\006D)\\\017?H\3412\301\341z|\301\217\302\213\301\256G\331\301\232\231\021\301\037\205\273\277\037\205{@\256G!@\3541\007D\354Q8@\366(\\@\315\314\004\301ffN\301\244pi\301q=\302\301=\n\307\300\270\036\265?\205\353\331@3\263\004D\024\256\037\30133\343\300\256G\321\300q=\222\301=\n\267\301\\\217\304\301=\n\t\302\232\231\201\301=\n\t\301\024\016\003D\\\217\322\300\341z\204\301H\341Z\301\205\353Q\301H\341\306\301\024\256\353\30133\371\301)\\#\302q=\266\301\315\254\004D)\\\317@\315\314\314\275\256G!\301ff\346\300\341z\324\300=\n\223\301\n\327\267\301)\\\305\301\244p\t\302\024\216\006D\327\243\360@\000\000`A\244p\355@\n\327#\300\n\327\243>\256Ga?\217\302-\301)\\w\30133\211\301\315\354\005D\256G!\300\000\000\240@\024\2567A\315\314\234@\\\217\242\300\315\314\014\300\205\353\321\277{\024V\301\n\327\217\301\217B\004D\270\036\325\300H\341\022\301\341z\324\277q=\232@\256G\341\277\n\327;\301\217\302\r\301\315\314\004\301\354Q\240\301\256g\004D\341z\024?\\\217\302\300\232\231\t\301q=\212\277\315\314\254@=\n\227\277\\\2172\301\341z\004\301=\n\367\300\232\231\006D\341z\014A\217\302\025A\315\314,@\354Q8>ff\366@H\341bA33\363@\354Q\030\300\000\000\000?fv\005D\232\231\221\300)\\\207@\205\353\231@\315\314\354\277\n\327\213\300\232\231I@{\024\032A33C@\217\302\335\3003\023\005Dff\306\27733\303\300\037\205+@\327\243P@\232\231Y\300\244p\275\300\315\314\314?\256G\001A\000\000\300?\nW\006D\205\353\241@\327\243`@\270\036\205\277\024\256\367@\270\036\005A\341z\324?\366(\\\277\270\036\325@q=RAH\321\006D\341z\364?=\n\337@\244p\255@R\270^?ff\032A\024\256#A\341zd@ff\206?\270\036\tA\244\240\007D)\\O@\315\314\244@)\\#A\\\217\nA\037\205\203@q=NA\037\205WA\205\353\331@\256G\211@\n\007\007D\232\231\031\300=\nW?\000\0000@\205\353\371@\354Q\310@H\341\332?\n\327\'A\270\0361A\270\036\215@{\024\005D\256G\371\300=\n#\301ff\336\300\256G\241\300\n\327\243<\n\327\303\277\\\217\302\300\315\314,@\205\353Q@\217\362\006D=\n\357@\n\327\243\276{\024.\300\270\036\005?\037\205\033@\024\256\357@{\024\276@\205\353\261?R\270\"A\354\361\006D\n\327#\274R\270\356@\303\365\250\276R\270.\300\\\217\002?H\341\032@)\\\357@\217\302\275@\327\243\260?\n\007\005D\244p\365\300\217\302\365\300=\nW\276\000\000\000\301ff&\301\270\036\345\300\000\000\250\300\\\217B\276R\270\336\277\\\177\005D\327\243\360?\256G\271\300\232\231\271\300\217\302\325?\n\327\303\300\354Q\010\301\303\365\250\300\024\256W\300\354Q\330?\205\313\006D{\024\246@q=\342@\232\231\031\277\366(\034\277\037\205\333@{\024n\277\270\036U\300\354Q\270\275\303\365\350?\327\023\007D\327\243\220?q=\312@33\003A\024\256\007?\270\036\005?\024\256\377@\315\314L>\315\314\014\300\270\036\205?\315,\006D=\ng\300R\270\036\300\244p-@H\341\222@\270\036E\300\217\302E\300\366(\214@q=Z\300\205\353\271\300\037U\005D\024\256W\300)\\\337\30033\273\300\303\365(\277\366(\234?ff\316\300R\270\316\300\256G\201?\303\365\330\300\037\265\003D\000\000\320\300\205\353\035\301\024\256W\301\232\231E\301\270\036\345\300\303\365\250\30033O\301)\\O\301\024\256\257\300)\254\003D)\\\017\276\341z\324\300\366( \301\205\353Y\301\n\327G\301\232\231\351\300\244p\255\300\244pQ\301\232\231Q\301),\006D\000\000 A\217\302\035A=\nW@\n\327#\274\024\256g\300)\\\037\300\315\314,@\\\217\222@\217\302E\300\n\247\005D\270\036\005\300\244p\375@\303\365\370@\n\327\243?\217\302\005\300ff\266\300q=\222\300R\270\036?\000\000 @\037\025\005D\205\353\021\300\037\205\213\300\341z\264@\000\000\260@\000\000\200\277\n\327\213\300)\\\377\30033\333\300\341z\324\277\315\314\003D\366(\244\300\270\036\355\300\n\327\027\301\\\217\002?\244p\275>\366(\304\300\000\000\030\301\217\302Q\301\024\256?\301\232\t\004D33s?\217\302\205\300R\270\316\300\327\243\010\301H\341\272?\303\365\250?\217\302\245\300\315\314\010\301\\\217B\301\244P\004D{\024\216?\n\327\003@\341zD\30033\253\300\217\302\355\300\341z$@\037\205\033@q=\202\300{\024\356\300\270.\006D=\n\357@\256G\tA\341z\030A\315\314\214@\024\256\007@\n\327#=\327\243 Aff\036A\232\231Y@),\006D\n\327#\275\217\302\355@\327\243\010A\n\327\027A\037\205\213@\270\036\005@\000\000\000\000\000\000 A\217\302\035A)\214\006D\000\000\300?H\341\272?H\341\016A\327\243 A\n\327/A\037\205\273@\270\036e@\000\000\300?\000\0008A\270\036\007D\\\217\022@\\\217r@\000\000p@\037\2053A\256GEA\341zTAff\002A\n\327\273@\\\217r@\303u\006D\303\365(\30033\263\27633\223?{\024\216?\256G\tA=\n\033Aq=*A\354Q\260@R\270N@\270\316\005D=\n\'\300\000\000\250\300\244p=\300H\341\272\277\000\000\300\277=\n\277@\\\217\342@\341z\000A\232\2319@)\354\004D\\\217b\300\315\314\304\300\327\243\014\301\000\000\320\300\000\000\240\300\256G\241\300\037\205\033@\\\217b@\024\256\217@Ha\002DR\270\"\301)\\[\301\\\217\202\301\024\256\227\301)\\\205\301R\270r\301)\\s\301\024\256\367\300\366(\324\300\244 \002D\256G\201\277H\3412\301\037\205k\301\327\243\212\301\217\302\237\301\244p\215\301\244p\201\301\217\302\201\301\000\000\014\301\303u\002Dq=\252?\n\327\243>\232\231\035\301q=V\301\000\000\200\301\270\036\225\301\315\314\202\301\232\231m\301q=n\301\232\331\002D\024\256\307?\303\3658@\327\243\360?\327\243\004\301\256G=\301=\ng\301\327\243\210\301\327\243l\301\327\243T\301\n\267\002Dq=\n\277\\\217\202?ff\026@\037\205\253?\256G\r\301\205\353E\301\024\256o\301\303\365\214\301\256Gu\301HA\003Dq=\n@)\\\317?\037\205K@\354Q\220@\000\000`@\244p\325\300)\\#\301\270\036M\301)\\w\301\0375\001D=\n\003\301\303\365\300\300q=\322\300\354Q\240\300\037\205k\300{\024\226\300\217\302m\30133\223\301{\024\250\301\205+\002Dffv@H\341\212\300\037\205\013\300{\024.\300\341z\224\277{\024.>=\nW\277\366(0\301\315\314h\301R\210\004D33\027A\315\314TA\037\205\243@\327\243\350@)\\\327@\327\243\004A\205\353\031A\217\302\tA\024\256\307\2773\243\010D)\\\203A\303\365\316A\217\302\355Aq=\254A\037\205\275A33\271A\024\256\305A\354Q\320Aq=\310AfF\014D\315\314hA\217\302\367A\024\256!B{\0241B\354Q\020B\303\365\030B\315\314\026B=\n\035B)\\\"B\024\016\014D\256Ga\277R\270ZAR\270\360A\366(\036B\\\217-B\315\314\014B\244p\025B\256G\023B\037\205\031Bf\366\020D=\n\235A\000\000\226A33\005BH\341FB\024\256lB{\024|B\354Q[B\303\365cB\315\314aB\205;(D\366(\272B\205k\341B\366\250\337B\217\302\374B\315\314\016C\000@\030C\232\031\034C\366\350\023C\354\021\026CH\301%D\\\217\036\301\nW\246B\232\231\315B\n\327\313B\244\360\350B\327\343\004C\nW\016C\2440\022C\000\000\nC3\223%D\354Q8\277{\024*\301f\346\244B\366(\314Bff\312B\000\200\347B\205+\004C\270\236\rCRx\021Cf\206%D\315\314L\276\037\205k\277\256G-\301\000\200\244B\217\302\313B\000\000\312B\232\031\347BR\370\003C\205k\rC\354\021!D\\\217\216\301\366(\220\301\205\353\225\30133\345\301)\334\200B\270\036\250B)\\\246B\303u\303B\315L\344B\327\343\033D\217\302\245\301\366(\032\302\303\365\032\302\n\327\035\302\341zE\302\n\327.B)\\}B\n\327yB\037\005\232B\244\320\034D\315\314l@\366(\210\301)\\\013\302\366(\014\302=\n\017\302\024\2566\302\327\243=B{\024\206B\354Q\204B\000\000\035D\244p=?{\024\216@q=\202\301ff\010\30233\t\302{\024\014\302R\2703\302\232\231@B\\\217\207B\205\373\035D\037\205{@\244p\225@\205\353\005A\232\231E\301)\\\361\301\303\365\362\301R\270\370\301\000\000$\302\354QPB\303%\036D\303\365(?H\341\222@\\\217\252@\341z\020A=\n;\301{\024\354\301\024\256\355\301\244p\363\301)\\!\302\ng\034D)\\\337\300q=\312\300\303\365\030\30033\323\27733\003@)\\\225\301\303\365\021\302\217\302\022\302\327\243\025\302q\315\035D33\263@\327\243\260\277\354Q8\277\244pM@\315\314|@\315\314\364@\270\036Q\301\270\036\367\301R\270\370\301\000P\035DH\341\372\277\303\365h@\217\302U\300\037\205+\300\000\000\240?R\270\376?{\024\266@\341zp\301ff\003\302\354\361 D\341zhA\270\036IA)\\\221A=\n3A\232\231=A\341z|A\366(\204A\217\302\241A\000\000\000\277\205\253 D\315\314\214\277H\341VA\037\2057A\\\217\210A\244p!A\000\000,AH\341jAR\270vA\303\365\230A3\323\036D\366(\354\300\024\256\007\301\232\231\301@H\341\202@=\n\033A\244p-@\024\256W@\232\231\351@\327\243\000A\270n\036D\303\365\310\27733\017\301\315\314 \301)\\\217@\256G!@\205\353\001A\205\353\221?ff\346?)\\\267@\3541%Dff\330A\n\327\313A\315\314\220A\000\000\210Aq=\374A\\\217\354A\024\256\014B\037\205\341A\315\314\346A\327\343$D\366(\234\277\327\243\316A{\024\302A=\n\207A\341z|A\341z\362A\315\314\342A\315\314\007B\217\302\327A\315\034$D=\nG\300\\\217\212\300\217\302\265A33\251A\354Q\\AR\270JA\232\231\331A\205\353\311AR\270\366A\256G$D\037\205+?\366(\034\300q=j\300\270\036\273A\\\217\256A=\ngA\244pUA\303\365\336A\256G\317A\2567%D\000\000p@\244p\215@\024\256\247?\354Q\270=\270\036\331A\\\217\314A\037\205\221AR\270\210A\303\365\374AR\010$D\024\256\227\300\244p}\277\n\327\243\276\037\205[\300\315\314\224\30033\263A\327\243\246A33WA\232\231EA\2329%D\327\243\230@\217\302\365<\205\353q@ff\216@\037\205\253?\217\302\365=)\\\331A\315\314\314A\217\302\221A\037\265!D\270\036a\301\315\314\024\301\327\243`\301\327\243$\301\205\353\031\301\024\256K\30133_\301\232\231QA\341z8A\270\036\031Dff\t\302\024\256A\302\232\231.\302\\\217A\302\\\2172\302H\341/\302\354Q<\30233A\302\000\000\252\301\ng\023D\303\365\266\301H\341d\302{\224\216\302=\n\205\302\037\205\216\302\037\005\207\302\024\256\205\302f\346\213\302\nW\216\302\327\203\021D\232\231\361\300)\\\363\301=\212\201\302\024\256\235\302\327#\224\302\270\236\235\302\270\036\226\302\256\307\224\302\000\000\233\302\256\'\035Dq=:B=\n\034B\270\036\201A\024\256\221\301\270\036\001\302{\024\334\301\000\000\001\302\000\000\344\301\327\243\336\301\ng\037D\n\327\017A33^B\000\000@B=\n\311A\037\205\023\301\354Q\272\301\366(\224\301{\024\272\301{\024\234\301R\230\035D)\\\347\300\256G\341?\256GAB{\024#B33\217A\232\231\203\301\366(\364\301\000\000\316\301\205\353\363\301\000\220\032D{\024B\301H\341\232\301\205\353%\301\217\302\020B\270\036\345A\327\243\270@\327\243\344\301\232\231*\302\037\205\027\302\217r\025D\024\256\243\301)\\\002\302\256G\037\302\327\243\366\301\024\256{AH\341\002A=\nk\301\366(D\302\244p|\302\303\225\031Dff\204Aq=z\300\354Q\200\301\366(\272\301\341zd\301\270\036\001B\n\327\305A{\024\356?\303\365\001\302\000\220\027D\244p\001\301)\\\007A\000\000@\301=\n\301\301H\341\372\301\303\365\262\301\037\205\301A\270\036\205A)\\\307\300\315,\026D\232\231\261\300q=Z\301q=:@ff\214\301\244p\355\301\327\243\023\302)\\\337\301\270\036\225A\244p1A=\252\031D)\\_A\\\217\006A\n\327\243>\303\365\206A\217\302e\300\037\205{\301\232\231\267\301)\\_\301ff\002B\024.\031D\354Q\370\277\354Q@A=\n\317@)\\\317\277H\341nA\303\365\260\300\256G\215\301\270\036\307\301ff~\301fV\033D{\024\nA{\024\326@33\245A\232\231qA\354Q\340@\341z\274AffF@\341z\020\301{\024\202\301Hq\034D\244p\215@\315\314PA\217\3021A\\\217\310A\366(\234AH\3416A\n\327\337A\327\243\360@\037\205\223\300\\\317\033D\205\353!\300\205\353\361?\354Q(A\256G\tA\354Q\264A\205\353\207Aff\016A\232\231\313A\024\256\237@\366\310\036Dff>A\205\353\025A\327\243\\A)\\\263A\n\327\243A\217\302\tB\270\036\347Aff\246Aff\025B\270\376\036D=\nW?\n\327KA)\\#A{\024jA{\024\272A\\\217\252A\270\036\rB\n\327\355A\270\036\255A\232\271 D\244p\335@\354Q\370@\256G\235A=\n\211Aff\254A\244p\361A\205\353\341A\315\314(B\232\231\022B\000P\035DffZ\301)\\\327\300\341z\274\300\354Q\300@R\270^@\315\314\374@q=\204A\244piAff\344A)\334\036D{\024\306@R\270\356\300q=\n\277\232\231\231>33CAR\270\032A\244paA\217\302\265Aq=\246A)\254\033D\000\000L\301\205\353\321\300\024\256\241\301\327\243T\30133G\301\315\314\014\277\270\036E\300\037\205\253?\037\205\037A\n\227\033D\303\365\250\276\256GQ\301\341z\334\300\354Q\244\301\205\353Y\301\341zL\301\256Ga\277q=Z\300\256G\201?3s\034D\366(\\@=\nG@q=\032\301\315\314\\\300\315\314\210\301H\341\"\301\244p\025\301\n\327#@\217\302\365<\024\376\030D\256G]\301q=&\301\037\205+\301\217\302\273\301q=\212\301\244p\367\301{\024\300\301)\\\271\301\354Q4\301\366\270\024D\327\243\210\301\256G\367\301\217\302\333\301ff\336\30133\"\302\244p\t\302=\n@\302)\\$\302\000\000!\302\024\276\024D\n\327\243=\000\000\210\301\327\243\366\301\270\036\333\301\217\302\335\301H\341!\302\270\036\t\302R\270?\302=\n$\302\341\032\030D33WA\341zXA33c\300=\n\213\301=\n_\301\354Qd\301\366(\330\301\327\243\246\301\205\353\t\302\217\322\030D\024\2567@\\\217\202A33\203A{\024.\277\366(h\301\270\0361\301ff6\30133\301\301\024\256\217\301=\272\034D\205\353yA\205\353\223A\037\205\377A{\024\000B=\noA{\024\216?\232\231\221@=\n\207@\341z\010\301\024^ D\303\365hA\244p\361A33\004B\000\000:B\354Q:B\000\000\354AR\270zAH\341\230Aq=\226A)\\!D{\024~@q=\224A\232\231\010B{\024\024BH\341IB33JBH\341\005B\270\036\235A\327\243\270A\n\227 D\270\036E\300\n\327c?33wA\\\217\370A\217\302\007B\\\217=BH\341=B\270\036\363A\341z\204A=\312\037D\315\314L\300\303\365\310\300\n\327\023\300\000\000DA\303\365\336A\205\353\365A\217\3020B{\0241B\037\205\331A\n\347 Dff\216@\000\000\240?q=\352\277\303\365\010@\232\231\205A\256G\001B\217\302\014B\\\217BBH\341BB\341\252!D\n\327C@\354Q\360@\205\353\211@\244p\235?ff\246@{\024\236A\037\205\rB\000\000\031B\315\314NB3\023#D\366(\264@=\n\013Aq=RA=\n\037A\037\205\333@\256G-A\270\036\313A=\n$B\037\205/B=\312\"D\205\353\221\277\024\256\217@\232\231\361@\000\000@A\315\314\014A=\n\267@=\n\033A\000\000\302A\341z\037B\\o%D\256G)A=\n\027A\270\036qA=\n\221A\327\243\264A=\n\233Aff\202A\366(\242A\354Q\013B\315\214%D\037\205\353>\327\2430Aff\036A\341zxAR\270\224A\354Q\270AR\270\236A{\024\206A\n\327\245Af\206&D\232\231y@\037\205\213@=\noA\315\314\\A\244p\233A\205\353\263A\037\205\327A\205\353\275A\256G\245A\354\221\"D\270\036}\301R\270>\301)\\7\301\256Ga\277\256G\001\300=\ng@\244p\325@\205\3531A\244p\375@\n\247 D\244p\365\300\205\353\273\301R\270\234\301=\n\231\301\315\314\010\301=\n\033\301\205\353\201\300\000\000\200\277\315\314\\@\217\362\"DH\341\022A\256G\301?\303\365d\301\\\217&\30133\037\301\256G!?\\\217\002\277\n\327\243@H\341\002A\000\200/D\n\327HB\\\217mBH\341NB\232\231\017B33\037B=\n!B)\\KB\315\314FB\354Q]B\35412D\341z,A\303\365sB\nW\214B\000\000zBR\270:B\354QJB\366(LB\341zvB\205\353qB\\\0371D\256G\211\300\024\256\317@\315\314bB\217\302\203B\n\327hB\\\217)B\366(9B\000\000;B\354QeB\315<2DR\270\216@{\024.>33/A\327\243tB\024\256\214B\024\256zBff;B\000\000KB\n\327LB\341:3D{\024~@H\341\006A\341z\204@R\270nA\217B\202B\270\236\224B\256G\205B\256GKBH\341ZB\327\2631D\037\205\303\300\303\365\010\300\341z\024@\366(\374\277\303\365\014A{\024lBff\210B\270\036rB\n\3272B\nG4D\315\314$A{\024\206@\\\217\002A\205\353IA\256G\005AH\341\230A\327\243\212B\000\000\235B\366\250\215B=\2124Dff\206?\232\2315A\024\256\247@)\\\023AR\270ZA{\024\026A\256G\241Aq\275\214B\232\031\237B\n\0076Dff\276@\000\000\340@ff\212A=\n3A\\\217rA\303\365\234A\256GuAH\341\320A\327\243\230B\000\3206D\303\365H@\244p\021Aq=\"A\037\205\243A\256GeAff\222A{\024\266A\217\302\223A\000\000\352A\244p7D\327\243 @\315\314\264@\232\2319AffJA\232\231\267AR\270\206A\341z\246A\366(\312A\n\327\247A\36685D\205\353\r\301\037\205\313\300{\024N\300R\270.@\205\353q@\256GaA=\n\377@=\n?A33\203A{\0246D\037\205[@{\024\256\300\037\205;\300=\nW>\270\036\305@R\270\346@{\024\214Aff6A\205\353uA\232\3317D\\\217\342@\366((A\205\353\321?\315\314\204@\256G\351@\n\327SA\327\243dAR\270\304A\n\327\223A\270\3166D\244p\205\300q=:@H\341\312@\205\353!\300\n\327\243\274\024\256G@\270\036\021A\205\353!A)\\\243A\000@3D\024\256c\30133\223\301\270\0365\301\341z\374\300{\024\206\301\000\000d\301\217\3021\301\270\036\245\300\037\205\203\300q=6D)\\?A\256G\021\300{\024\316\300\n\327#?q=\202@\232\231\231\300\\\217\022\300\232\231Y?\232\231\331@3S5Dq=j\300\315\314\004A\217\302\275\300\232\231!\301\256GA\300\205\353\321>)\\\007\301ff\276\300\n\3273\300\000\0009D33kA\327\2430A\000\000\270A\354Q\014A33\223@H\341:A\217\302qA\024\256\307@\000\000\014A=\2328D\037\205\313\277\217\302QA33\027A\256G\253A\217\302\345@\327\243@@\244p!A\354QXA\315\314\224@f&=D\037\205\221A\315\314\204Aff\372A\270\036\335Aff\036B\303\365\312A\232\231\251Aq=\342A\024\256\375A\270\376<DR\270\036\277\\\217\214A\024\256\177A\244p\365A\366(\330A\205\353\033B\000\000\306A\327\243\244A\256G\335A\354\021;Dff\366\300\270\036\005\301\205\353\035A\341z\004A\n\327\267A\\\217\232Aq=\372Aff\210A{\024NA\232\t;D\270\036\005\276\\\217\372\30033\007\301\n\327\033Aff\002A\315\314\266A\037\205\231A33\371A)\\\207A\244\220;D=\n\007@\244p\375?=\n\267\300H\341\312\300\232\231=A\366($A\024\256\307Aff\252A=\n\005Bf\2469D\270\036\365\300\232\231\261\300\217\302\265\300{\024V\301\000\000`\301{\024\206@ff&@ff\212Aq=ZA\217\302?D\037\205\303Aq=\206A\270\036\227A{\024\226A\303\3650A=\n\'A=\n\345A\354Q\330A\303\365&BR\230>D\270\036\225\300q=\236A\205\353AA\024\256cA\232\231aA\315\314\314@\303\365\270@\217\302\277A=\n\263A\217\"<D\244p\035\301\000\000h\301=\n\037A\205\353\021@\341z\214@\354Q\210@\366(\\\300\205\353\201\300{\024bA\327\263?D\354QdA\217\302\215@\037\205k\276\024\256\301Aff\204A\256G\225Aq=\224A\256G-A)\\#A\000\320>D\n\327c\300)\\+AR\270^?\\\217r\30033\245A\n\327OA\232\231qA\037\205oA\327\243\350@\256\227>D\256Ga\277{\024\216\300\256G\035A\n\327#\274\244p\225\300\366(\236A\217\302AA\037\205cA\244paA\n\347;D\366(,\301q=:\30133s\301{\024n\277\354Q,\301H\341v\301\366(\020A\315\314\254?\244p]@q];D\232\231\t\300\\\217N\301\327\243\\\301\315\314\212\301\270\036E\300R\270N\301\327\243\214\301\037\205\333@\315\314L\277\256\2678D\244p)\301\n\327K\301\000\000\274\301=\n\303\301\037\205\337\301R\270Z\301{\024\274\301)\\\341\301R\270n\300H\361:Dff\016A\354Q\330\277\217\302u\300\232\231i\301\024\256w\301\354Q\230\301\327\243\230\300\217\302i\301\366(\232\301\232\3319D\n\327\213\300\303\365\220@\205\353\301\300)\\\003\301\217\302\227\301\315\314\236\301\256G\273\301q=\022\301\n\327\227\301\303\205=D=\nkA\270\036%A\217\302\231A{\024\nA)\\\317@\303\365\210\300\270\036\245\300\037\205\013\301\232\231\261@\205[;D\\\217\n\301\303\365\300@\341z\324?\303\365(A\217\302\365\274\037\205\013\300=\nO\301\270\036]\301=\n\213\301\327\3238D\205\353!\301q=\226\301H\341\202\300)\\\007\301\256G\341>ff\"\301\315\314D\301\341z\270\301\037\205\277\301H\361:D)\\\007A\341z\324\277\270\036%\301\n\327\213@\000\000\000\000ff\016A\354Q\330\277\217\302u\300\232\231i\301\000\200;DR\270\016@=\n+A\205\353\021?\244p\001\30133\323@R\270\016@{\0242Aq=\n?{\024\316\277\327\223;DR\270\236>\\\217\"@\000\0000A\256Ga?\303\365\370\300\270\036\335@\\\217\"@=\n7A\232\231Y?\232\031;D\341z\364\277\315\314\314\277\256G!?\244p\021A\n\327\203\277=\n\033\301\000\000\240@\256G!?\341z\030A\244\240>D\217\302aA33CA\366(HA\n\327kA\232\231\271A\256GQA\244p\215@H\341\230A\n\327kAf&BD\244paA\232\231\341A\354Q\322A\315\314\324A\327\243\346A\366(\025B)\\\331A{\024\224A\315\314\004B\000\300@D33\263\300\n\327\007A\315\314\264A\037\205\245A\000\000\250A\n\327\271A\037\205\375A\\\217\254A\\\217NAR\270=D\205\353A\301\217\302\215\301\354Qh\300\024\256\'A\270\036\tA{\024\016A\217\3021A\\\217\234A33\027A\303u9D\354Q\210\301\256G\351\301=\n\013\302)\\\245\301\205\353\321\300\037\205\007\301\\\217\002\301\217\302\275\300\205\353!@\037\2459D\244p=?ff\202\301)\\\343\301{\024\010\302\244p\237\301q=\272\300)\\\367\300\244p\355\300{\024\246\300\256\3479D\270\036\205?\n\327\343?\366(t\301=\n\333\301\205\353\003\302\270\036\227\301\303\365\230\300{\024\326\300\366(\314\300\366\2305D\n\327\211\301\037\205\201\30133w\301\303\365\001\302\244p2\302\n\327H\302\341z\020\302{\024\260\301)\\\277\301\024\2362DR\270>\30133\351\301H\341\340\301\303\365\332\301\327\2431\302\270\036b\302\037\205x\302\366(@\302R\270\007\302\354\0013D\024\256\307?\217\302%\301R\270\334\301ff\324\301\341z\316\301ff+\302H\341[\302\256Gr\302\205\3539\302{\2045D\327\243 A\232\2319A\n\327\243\276ff\214\301{\024\204\301\354Q|\301q=\003\302R\2703\302\270\036J\302\327#/D{\024\314\301\037\205w\301\\\217^\301\327\243\316\301q=,\302{\024(\302\270\036%\302\256Gi\302H\341\214\302\024\2562D\\\217bA\232\2315\301\024\256\247\277\000\000\200>R\270:\30133\347\301H\341\336\301\303\365\330\301\327\2430\302\315\234-D\366(\242\301\037\205\303\300\303\365\374\301\327\243\254\301\366(\240\301\037\205\377\301\024\256D\302\037\205@\302\\\217=\302\217r/DH\341\352@H\341N\301\244p\235?q=\302\301\n\327c\301H\341J\301\315\314\304\301\354Q\'\302\366(#\302\315\234.D\217\302U\300\000\000\200@\366(\202\301=\n\007\300\303\365\334\301\327\243\214\301\366(\200\301\037\205\337\301\024\2564\302\303\2450Dq=\002A\232\231\231@q=BA{\024\002\301\303\365\300@\n\327\233\301=\n\027\301\366(\374\300ff\236\301\000P5D\256G\225Aff\326A\024\256\273Aff\366A\341z(A\037\205\305A\205\353Q\277\037\205\023A\341z,A\341\3521D\256GY\301\\\217\242@\037\205SA{\024\036A\217\302\211A33C\300\217\3021Afff\301\037\205\213\300\217B2D)\\\257?)\\C\301ff\316@\244piA\000\0004AR\270\224A=\n\327\277\024\256GA\341zP\301\\\377.D\315\314P\301H\341:\301{\024\312\30133\323\300\270\036\305?ff\346\277\256G\261@\024\256k\301\205\353\021\277q\2756D\217\302\367A)\\\217A\354Q\232AR\270\266@\303\365\302A=\n\002B)\\\351A=\n\022B\205\353\201A\315\2749D\n\327?A\n\327+B\256G\357Aq=\372A\232\231\215A\244p\021B\000\0002B\327\243$B\000\000BB\000\000<D\315\314\020A\354Q\250A=\nPB\n\327\033B\354Q!B\000\000\326A\327\2435B33VB\n\327HB\232)?DffJA\232\231\255A\217\302\006B\354Q\201B\244pNB\205\353SB\232\231\035Bq=hBff\204B\315\2745D\315\314\026\302ff\310\301\000\000\200\301\354Q\200\300\024\256\327A\\\217^A\341ztA\232\231\331?H\341\242A\244\0001D\037\205\227\301\\\217b\302\303\365/\302\217\302\013\302\232\231\267\301\354Q\000A\303\365\240\300q=j\300\205\353\211\301{\344*D\037\205\303\301\037\205-\302\366(\242\302)\334\210\302\037\205m\302\\\217=\302)\\\203\301\217\302\353\301\315\314\340\301\\\257*D\341zT\277\366(\312\301\n\3270\302\354\321\243\302\037\205\212\302\n\327p\302H\341@\302\000\000\212\301ff\362\301\n\207)D\366(\224\300R\270\256\30033\357\301)\\C\302{\024\255\302\256\307\223\302\024\256\201\302ffS\302=\n\257\301\256\007+D\354Q\300@\327\243\260?\315\314\014?\270\036\277\301\354Q+\302\\\017\241\302\217\302\207\302\354Qk\302)\\;\302\n\307*D\256G\201\277\000\000\240@\244p\275>\037\205\353\27633\307\301)\\/\302{\024\243\302\256\307\211\302)\\o\302\232\231*D\217\3025\277\366(\334\277\256G\211@{\024\256\276\217\302\225\277H\341\314\301332\302\000\200\244\30233\213\302\000\300,D\232\231\tA\341z\374@\366(\334@q=NA\366(\004A\217\302\355@{\024\210\301\315\314\017\302\315L\223\302\232\0311D33\213A\000\000\320A\354Q\312Aq=\302A\354Q\362A\256G\315A\327\243\306A\024\256\307>ff\224\301fV.D\315\3140\30133\313@33oA\n\327cA\024\256SA\205\353\231A\217\302iA\341z\\A\\\217*\301=:/D\n\327c@\024\256\357\300\\\217\036A{\024\224Aff\216A\354Q\206Aff\266A)\\\221AR\270\212Aq\2350D\232\231\261@\217\302\021A\354Q\370\277)\\wA\341z\300A\315\314\272AR\270\262A\315\314\342A\217\302\275Af\366-D\217\302)\301\205\353\241\300\000\000\300\277\315\314H\30133\233@33WA\n\327KA\024\256;A\205\353\215A\327\343.D\244pm@\315\314\334\300\315\314\254\277\244p\r@\244p\r\301\303\365\010A\256G\211A\232\231\203A=\nwA\000p0D{\024\306@ff\036A\217\3025\277H\341\232@ff\006A\232\231)\300\000\000lA\315\314\272A\270\036\265A{D0D{\024.\277\354Q\260@\037\205\023A\205\353\261\277\270\036\205@=\n\367@\270\036U\300\270\036aA)\\\265AHq.D\232\231\351\300)\\\377\300\270\036\345\277\217\302\365?=\n\013\301\303\365H\300=\n\327>{\024*\301\327\243\330@\327\2633D\354Q\250A\n\327[A\303\365PA\000\000\232A\024\256\267A\232\231EA33\217A\024\256\253A\\\217&Af\2663D\n\327#=\327\243\250A\341z\\A\232\231QA\354Q\232A\000\000\270Aq=FA\037\205\217A\000\000\254A\341\0322D\217\302\315\300\341z\314\300ffjA33\353@\244p\325@\217\302MA\\\217\204AR\270\276@\366(8A\366\2701D\n\327\303\277R\270\376\300\244p\375\300\205\353QAq=\272@\341z\244@\256G5A\327\243pA\217\302\215@=\312-D\024\256{\301{\024\212\301\037\205\275\30133\275\301=\n\'\300\\\217\036\301\244p)\301\315\314\214\300\327\2430\277\024~-D\354Q\230\277)\\\207\301\232\231\223\301=\n\307\301R\270\306\30133s\300\232\2311\301\341z<\301H\341\262\300\\O0D\354Q4A\256G!A\315\314\264\300\217\302\345\300\217\302Y\301\270\036Y\301=\n\357@{\024.>\\\217\002\277{42D\\\217\362@\315\314\226A\256G\215A=\n\367?\315\314\314>\303\365\300\300\024\256\277\300\315\314pA\000\000\370@{\2645D\000\000`A\327\243\254Aff\003B\256G\375AH\341~AfffA=\n\377@\366(\000Aff\350A\\\2376DH\341j@)\\\215A\000\000\312A{\024\022B\354Q\rB\315\314\234A\\\217\220Aq=:AH\341:A\037\0256Dq=\n\300\256G\301?\366(xAR\270\270A\244p\tB\024\256\004B\037\205\213A\\\217~A\024\256\027A\303\0058D\354Q\370@33\263@\354Q\024A\366(\272A\315\314\366A\341z(BR\270#B\232\231\311A)\\\275A\354q8D\354Q\330?33\027A\256G\351@)\\/A\024\256\307A\366(\002Bq=/B\341z*B\270\036\327Aff8D\354Q8\276\256G\301?\354Q\024A\037\205\343@\341z,Aq=\306A\244p\001B\037\205.B\217\302)B\303\2059D\024\256\217@\205\353\211@\000\000\300@\366(\\A\232\2319A\354QtA\366(\352Aff\023B\341z@B\00009D\037\205\253\277\232\231I@{\024>@\270\036\225@R\270FA\366($AH\341^A\244p\337A=\n\016B\327\2038D\366(,\300\303\365\200\300\037\205\353>)\\\217>\366(\374?\024\256\033Aq=\362@\n\3273A\205\353\311A3\3237D\327\2430\300ff\256\300\256G\331\30033\023\300R\270\036\300q=J\277=\n\337@\205\353\231@\024\256\007A\354a7D\\\217\342\277\303\365\220\300=\n\347\300\303\365\010\301q=\202\300\000\000\210\300\n\327#\300ff\246@\\\217B@H1:D\n\3273A\037\205\027AR\270\326@\327\243\200@\037\205+@\244p\345@\024\256\337@H\341\nA\037\205\203A\354\241;D\354Q\270@\000\000\210A\024\256sA\037\205GA\341z\034A=\n\007AH\341NA\000\000LA=\ngA\315<:D\\\217\262\300\354Q8>R\2706Aff\032A\341z\334@ff\206@=\n7@33\353@\244p\345@=z;DR\270\236@R\270\036\277\341z\244@=\n\203A\217\302iA\232\231=A\\\217\022Aq=\372@\303\365DA\217R:D\n\327\223\300{\024\256>\024\256\247\300\270\036\005?\366(<A\n\327\037A)\\\347@\256G\221@\315\314L@3s8D\024\256\357\300\217\302A\301\315\314\344\300\024\256K\301=\n\337\300\327\243\210@\000\000 @\270\036\205\276\315\314<\300)l:D\341z\374@\315\314\314>=\n\207\300\244p=?H\341\232\300\037\205k?\\\217BAq=&A\366(\364@\354\0219D\270\036\255\300R\270\036@\354Q\240\300{\024\032\301\244p\225\300\000\000$\301\024\256\217\300\000\000\330@)\\\237@\232\3118D\327\243\220\277\256G\321\300\315\314\254?\341z\304\300\366(,\301\232\231\271\300{\0246\301\n\327\263\300\n\327\263@f\0068D33C\300\217\302\205\300\244p\031\301\232\231\331\277=\n\023\301\303\365\\\301\232\231\r\301H\341f\301R\270\n\301\303\3059D\024\256\337@\366(|@\n\3273@ff&\300\256G\251@\315\314\014\300q=\332\300{\024\356\277{\024\356\300\024\356;D{\024\nA\205\353yA\270\036IA=\n7A\303\365\300@R\270^A\217\302\315@\024\256\347?\327\243\330@\315L<D\244p\275?\217\302!A\315\314\210A\315\314`AR\270NA\354Q\360@ffvA\270\036\375@\\\217R@\000\300=D\232\231\271@\303\365\350@\\\217~A33\267A\315\314\236A\217\302\225A\303\365TA\232\231\251A)\\[A\n\247?D\037\205\363@\\\217VAq=nA\366(\274A{\024\364A\024\256\333A\327\243\322A)\\\247A\341z\346A\205{<DH\341J\301q=\242\300H\341:?\244p\r@\244p-A\327\243\216A\341zlAffZA\n\327\003A\341*<D\256G\241\277=\n_\301\\\217\312\300\024\256\007\27733s?\256G\031A\\\217\204A\354QXAq=FA\366\310=D=\n\317@R\270\246@=\n\357\300)\\\017>{\024\276@\244p\355@ff\200A\354Q\270A\205\353\237AH\2613D\341z!\302\232\231\007\302\327\243\014\302)\\?\302\205\353 \302R\270\t\302\315\314\003\302\\\217\302\301\327\243\212\301\232\3114D\366(\214@\303\365\017\302\366(\354\301q=\366\301\n\327-\302ff\017\302ff\360\301\\\217\344\301\037\205\237\301\366\0101D\366(p\301{\024*\301\000\000L\302\270\0362\302\366(7\302H\341i\302\244pK\302q=4\302\354Q.\302\303u0D33\023\300\341z\212\301H\341N\30133U\302\354Q;\302)\\@\302{\024s\302\327\243T\302\244p=\302H\301,D\270\036m\301\303\365\210\301\037\205\000\302\000\000\336\301q=\210\302\232\231v\302\327\243{\302\024.\227\302\303\365\207\302\244@-DR\270\376?\256GM\301{\024r\301\270\036\361\301{\024\316\301\217B\204\302\327\243n\302\024\256s\30233\223\302q\215.Dff\246@{\024\346@\366(\364\300H\341\036\301\037\205\307\301\341z\244\301R\270s\302\n\327Y\302H\341^\302\n\027-D33\273\300ff&\277\037\205\253?\024\256W\301\341z|\301\354Q\366\301\256G\323\301\\\217\205\302q=q\302\315\354-D\217\302U@\327\243 \300\366(,@\217\302\225@q=\"\301=\nG\301\232\231\333\301\\\217\270\301\217\302}\302\205[/D)\\\267@\270\036\021A{\024N@R\270\006A\\\217&A\270\036\215\300R\270\326\300\217\302\255\301R\270\212\301\256\3071D=\n\033AR\270vA{\024\226A\\\217NAH\341\220A\315\314\240A\303\365\250@R\270>@\341z@\301\23292D\n\327\343?\037\2057A\232\231\211A\354Q\244A=\nkA\270\036\237A=\n\257A\205\353\341@\354Q\230@\205\3134D\341z$A\303\365@A\000\000\256A\n\327\333A\\\217\366A\217\302\307A)\\\361A\327\243\000BR\270\212A\217\3222D\341z\374\300\303\365\030@\244p\205@\217\302]AR\270\234A\244p\267A\327\243\210Aq=\262A\366(\302A\327S2D\244p\375\277\205\353\035\301\205\353\321>\366(\014@{\024>AH\341\214A\232\231\247A\232\231qAff\242A\037\2651DR\270\036\300R\270\216\300\232\231E\301\341z\004\300\341z\224\276ff\026A{\024rA\217\302\223A\205\353IA\\\0373D\270\036\265@\037\205K@\232\231\231?{\024\326\300\217\302e@\n\327\253@\303\365pA\354Q\246A=\n\301A\270\2160D\366($\30133\223\300\\\217\342\300\303\365\020\301\232\231\207\301\244p\325\300\341z\234\300\232\231\231@\341z(AR\2500D\315\314\314>\217\302\035\301ff\206\300\217\302\325\300\\\217\n\301ff\204\301\327\243\310\300\024\256\217\300ff\246@{\024/D\205\353\311\300\270\036\275\300)\\\201\301\366((\301\n\327O\301\037\205o\301H\341\266\301\256GI\301\315\314,\301\\o1DR\270\026A=\nG@\327\243`@\000\000\330\300\037\205\213\277\341zd\300\232\231\261\300=\nW\301q=J\300\\\0170D\000\000\260\300H\341z@\303\365\030\300R\270\376\277\000\000D\301H\341\322\300\270\036\021\301\315\3140\301\037\205\227\301\303\0054D\232\231}A\232\231%A\366(\236A)\\WA\217\302]Afff@\366(\024A\303\365\330@\232\231\231@HQ5D\217\302\245@q=\250A\341zxA\232\231\307A\270\036\225A\354Q\230A\341z\014A=\ngA)\\?A\256\0075D33\223\277\303\365\200@=\n\237A{\024fAff\276A\205\353\213A\270\036\217A\366(\364@\327\243TA=*7D\327\243\010A\341z\354@\270\036IA)\\\343A)\\\267A)\\\001Bq=\320A\244p\323A)\\\201A\024\3567D\n\327C@\232\2319A33\'A{\024zA\n\327\373A\n\327\317A\232\231\rBR\270\350A\205\353\353A\232\2117D\303\365\310\277R\270\276?\341z A{\024\016A\303\365`A\256G\357A\256G\303A\354Q\007B\366(\334A\232\2316D\000\000p\300q=\252\300\327\243\020\300\303\365\310@\366(\244@\303\365$A\256G\321A\256G\245A\327\243\360A\303\2254D\303\365\000\301\303\365<\301{\024V\301\270\036%\301\n\327\343\277\037\205;\300\000\000\020@\315\314\220A\232\231IA3#3D\256G\271\300\232\231]\301\315\314\214\301)\\\231\301H\341\200\301q=\362\300\037\205\013\301\\\217b\300\303\365DA\232)3D\315\314\314={\024\266\300\000\000\\\301\000\000\214\301\\\217\230\301{\024\200\301=\n\357\300\205\353\t\301\366(\\\300\354\0216D{\024:A\024\256;A{\024\276@\024\256\007\300\n\327\273\300{\024\356\300\366(\214\300\270\036\205@\327\243@@\037%6D\232\231\231>H\341>A\341z@A\024\256\307@\303\365\350\277q=\262\300\341z\344\300\\\217\202\300R\270\216@=\3323DR\270\022\301\205\353\r\301\327\2430@=\n7@\037\205;\300\n\327/\301\n\327k\301\341z\202\301\000\000T\301\n\2273Dff\206\277\037\205#\301R\270\036\301H\341\332?\024\256\347?R\270~\300\327\243@\301\327\243|\301H\341\212\301H\2213D\354Q\270\275\205\353\221\277\303\365$\301\366( \301)\\\317?\366(\334?q=\202\300{\024B\301{\024~\301\341\2723Dff&?)\\\017?H\341\372\276\\\217\032\301\217\302\025\301\256G\021@\024\256\027@H\341Z\300\024\2567\301\n\2271D\303\365\010\301\270\036\375\300\000\000\000\301\315\314\020\301\217\302\221\301)\\\217\301\256G\311\300{\024\306\300\024\256?\301\024\356,D\270\036\225\301\232\231\331\301ff\324\301\270\036\325\301\037\205\335\301\244p\023\302q=\022\302\244p\307\301\327\243\306\301qm-DR\270\376?33\205\301\024\256\311\301\341z\304\30133\305\301\232\231\315\301\341z\013\302\256G\n\302\037\205\267\301)\374-DR\270\016@=\n\207@R\270f\301\n\327\267\301\327\243\262\301)\\\263\301\217\302\273\301\\\217\002\302)\\\001\302q].D\\\217\302?\000\000p@\024\256\267@ffN\301\024\256\253\301\341z\246\30133\247\301\232\231\257\301\303\365\370\301\256w/D\270\036\215@\217\302\275@\\\217\002Aff\"A\n\327\007\301ff\210\30133\203\301\205\353\203\301\354Q\214\301\024\316(D33\325\301\205\353\261\301\217\302\245\301\205\353\223\301\000\000\204\301\\\217\014\302\315\314.\30233,\302\\\217,\302\244\020\'DR\270\336\300\244p\006\302\232\231\351\301\244p\335\301\232\231\313\301\024\256\273\301ff(\302\327\243J\302=\nH\302\217\002*D\341z<Aq=\232@\327\243\256\301)\\\213\301ff~\301R\270Z\301H\341:\301\\\217\362\301\037\205\033\302\n\007+Dq=\202@\232\231}Aq=\016A{\024\216\301\232\231U\301\256G=\301\232\231\031\301\037\205\363\300\000\000\322\301f\006-D\024\256\377@\303\365@AR\270\276A=\n\207A\354Q\034\301\037\205\253\300\217\302u\300{\024\316\277\\\217\302>q\315.D\037\205\343@\232\231qA)\\\231A\232\231\367A\205\353\277Aq=*\300\000\000\340?\256GQ@\000\000\260@\\\237-D=\n\227\300\303\365\030@{\024&A33gA\n\327\321A\366(\232A\366(\354\300{\024>\300\232\231\271\277Hq.D\205\353Q@\354Q\270\277\244p\265@\\\217ZA\n\327\215A{\024\354Aff\264A33\203\300R\270\236>\n\327-Dq=\032\300R\270^?ffv\300\327\243P@\000\0004A\270\036uA\315\314\330A\270\036\241A\354Q\320\300Rh0D\354Q$A\037\205\373@q=2A\244p\315@\341zXA\366(\254AR\270\314A\341z\025B\256G\363A\303\3052D)\\\027A\n\327\235A\\\217\212A\315\314\244A{\024~A\205\353\267A\n\327\367A33\014B\354Q;B\366(4D\232\231\261@\366(pAq=\312A\303\365\266A33\321A\244p\253A\354Q\344A\270\036\022Bff\"B\270>3Dq=j\300\205\353\361?\232\2315A\303\365\254A\024\256\231A\205\353\263A\366(\216A=\n\307A\341z\003B\315<4D{\024~@R\270\236>\037\205\273@\270\036uAR\270\314A\244p\271A\024\256\323A\205\353\255A\315\314\346Af\3663D\315\314\214\277\024\2567@q=J\277\354Q\230@\037\205cA\205\353\303A\327\243\260AH\341\312A\270\036\245A\354q7DH\341^A\256GMAff\206Aq=RA\037\205\225A33\341A\024\256\031B=\n\020B\366(\035Bq=8D\037\205K@H\341\210A{\024\200A\n\327\237A\\\217\202A\303\365\256A\327\243\372Aff&B\217\302\034B)L9D)\\\207@\270\036\355@R\270\252A\205\353\241A\024\256\301Aff\244A\315\314\320Aq=\016B\354Q7BR\2508D\n\327#\300\217\302\325?33\233@q=\226A\244p\215A33\255A\205\353\217A\354Q\274A\000\000\004B\\\2579D\037\205\203@ff\306?\303\365\270@)\\\017A\270\036\267A\354Q\256A{\024\316A\315\314\260A33\335AH\3618D{\024>\300\205\353\221?\217\302\265\277\n\3273@\024\256\277@)\\\237A\\\217\226A\354Q\266A=\n\231A\341\2328D\315\314\254\277q=\212\300=\nW\276\256G1\300H\341\272?\341z\224@\\\217\224A\217\302\213A\037\205\253AHq9DffV@\000\000\000@\354Qx\277\303\365H@\341z\024?\205\353\231@\024\256\377@)\\\257A\\\217\246A=z:D\341z\204@\024\256\357@\341z\304@H\341J@\303\365\350@=\n\227@33\017A{\024BA\341z\320A\2172@D=\n\267A\366(\330A\303\365\362A\366(\350Aff\320A\256G\361A\315\314\334A\327\243\376A=\n\014BR8ADH\341\202@\217\302\327AH\341\370A\n\327\tB\244p\004B\270\036\361A\000\000\tB\037\205\375A\024\256\017B{\304@D\024\256\347\277\205\353\021@\256G\311Aff\352A\232\231\002Bff\372A\327\243\342A\217\302\001B=\n\357A\205KAD=\n\007@\232\231\231>\341z\214@\366(\332A\256G\373A=\n\013B\327\243\005B\037\205\363A33\nB\n\347@D\303\365\310\277q=\n?\\\217\242\277\341z4@\232\231\315AR\270\356A\217\302\004BR\270\376A\303\365\346A\024\216CD\217\302)A\327\243\020Aff2A\244p\025AH\341VAq=\021B\315\314!B33/B\315\314)B\244pCD\037\205\353\276ff\"A\256G\tA=\n+A{\024\016A\037\205OAff\017B\303\365\037B)\\-B\244\020DD\000\000 